{
  "version": "1.0",
  "truncation": null,
  "padding": null,
  "added_tokens": [
    {
      "id": 0,
      "content": "<|pad|>",
      "single_word": false,
      "lstrip": false,
      "rstrip": false,
      "normalized": false,
      "special": true
    },
    {
      "id": 1,
      "content": "<|unk|>",
      "single_word": false,
      "lstrip": false,
      "rstrip": false,
      "normalized": false,
      "special": true
    },
    {
      "id": 2,
      "content": "<|bos|>",
      "single_word": false,
      "lstrip": false,
      "rstrip": false,
      "normalized": false,
      "special": true
    },
    {
      "id": 3,
      "content": "<|eos|>",
      "single_word": false,
      "lstrip": false,
      "rstrip": false,
      "normalized": false,
      "special": true
    },
    {
      "id": 4,
      "content": "<|endoftext|>",
      "single_word": false,
      "lstrip": false,
      "rstrip": false,
      "normalized": false,
      "special": true
    }
  ],
  "normalizer": {
    "type": "NFC"
  },
  "pre_tokenizer": {
    "type": "ByteLevel",
    "add_prefix_space": false,
    "trim_offsets": true,
    "use_regex": true
  },
  "post_processor": null,
  "decoder": {
    "type": "ByteLevel",
    "add_prefix_space": true,
    "trim_offsets": true,
    "use_regex": true
  },
  "model": {
    "type": "BPE",
    "dropout": null,
    "unk_token": "<|unk|>",
    "continuing_subword_prefix": null,
    "end_of_word_suffix": null,
    "fuse_unk": false,
    "byte_fallback": false,
    "ignore_merges": false,
    "vocab": {
      "<|pad|>": 0,
      "<|unk|>": 1,
      "<|bos|>": 2,
      "<|eos|>": 3,
      "<|endoftext|>": 4,
      "!": 5,
      "\"": 6,
      "#": 7,
      "$": 8,
      "%": 9,
      "&": 10,
      "'": 11,
      "(": 12,
      ")": 13,
      "*": 14,
      "+": 15,
      ",": 16,
      "-": 17,
      ".": 18,
      "/": 19,
      "0": 20,
      "1": 21,
      "2": 22,
      "3": 23,
      "4": 24,
      "5": 25,
      "6": 26,
      "7": 27,
      "8": 28,
      "9": 29,
      ":": 30,
      ";": 31,
      "<": 32,
      "=": 33,
      ">": 34,
      "?": 35,
      "@": 36,
      "A": 37,
      "B": 38,
      "C": 39,
      "D": 40,
      "E": 41,
      "F": 42,
      "G": 43,
      "H": 44,
      "I": 45,
      "J": 46,
      "K": 47,
      "L": 48,
      "M": 49,
      "N": 50,
      "O": 51,
      "P": 52,
      "Q": 53,
      "R": 54,
      "S": 55,
      "T": 56,
      "U": 57,
      "V": 58,
      "W": 59,
      "X": 60,
      "Y": 61,
      "Z": 62,
      "[": 63,
      "\\": 64,
      "]": 65,
      "^": 66,
      "_": 67,
      "`": 68,
      "a": 69,
      "b": 70,
      "c": 71,
      "d": 72,
      "e": 73,
      "f": 74,
      "g": 75,
      "h": 76,
      "i": 77,
      "j": 78,
      "k": 79,
      "l": 80,
      "m": 81,
      "n": 82,
      "o": 83,
      "p": 84,
      "q": 85,
      "r": 86,
      "s": 87,
      "t": 88,
      "u": 89,
      "v": 90,
      "w": 91,
      "x": 92,
      "y": 93,
      "z": 94,
      "{": 95,
      "|": 96,
      "}": 97,
      "~": 98,
      "¡": 99,
      "¢": 100,
      "£": 101,
      "¤": 102,
      "¥": 103,
      "¦": 104,
      "§": 105,
      "¨": 106,
      "©": 107,
      "ª": 108,
      "«": 109,
      "¬": 110,
      "®": 111,
      "¯": 112,
      "°": 113,
      "±": 114,
      "²": 115,
      "³": 116,
      "´": 117,
      "µ": 118,
      "¶": 119,
      "·": 120,
      "¸": 121,
      "¹": 122,
      "º": 123,
      "»": 124,
      "¼": 125,
      "½": 126,
      "¾": 127,
      "¿": 128,
      "Â": 129,
      "Ã": 130,
      "Ä": 131,
      "Å": 132,
      "Æ": 133,
      "Ç": 134,
      "È": 135,
      "É": 136,
      "Ê": 137,
      "Ë": 138,
      "Ì": 139,
      "Í": 140,
      "Î": 141,
      "Ï": 142,
      "Ð": 143,
      "Ñ": 144,
      "Ô": 145,
      "Õ": 146,
      "Ö": 147,
      "×": 148,
      "Ø": 149,
      "Ù": 150,
      "Ú": 151,
      "Û": 152,
      "Ü": 153,
      "Ý": 154,
      "à": 155,
      "á": 156,
      "â": 157,
      "ã": 158,
      "ä": 159,
      "å": 160,
      "æ": 161,
      "ç": 162,
      "è": 163,
      "é": 164,
      "ê": 165,
      "ë": 166,
      "ì": 167,
      "í": 168,
      "ï": 169,
      "Ċ": 170,
      "Ġ": 171,
      "Ģ": 172,
      "ģ": 173,
      "Ĥ": 174,
      "ĥ": 175,
      "Ħ": 176,
      "ħ": 177,
      "Ĩ": 178,
      "ĩ": 179,
      "Ī": 180,
      "ī": 181,
      "Ĭ": 182,
      "ĭ": 183,
      "Į": 184,
      "į": 185,
      "İ": 186,
      "ı": 187,
      "Ĳ": 188,
      "ĳ": 189,
      "Ĵ": 190,
      "ĵ": 191,
      "Ķ": 192,
      "ķ": 193,
      "ĸ": 194,
      "Ĺ": 195,
      "ĺ": 196,
      "Ļ": 197,
      "ļ": 198,
      "Ľ": 199,
      "ľ": 200,
      "Ŀ": 201,
      "ŀ": 202,
      "Ł": 203,
      "ł": 204,
      "Ń": 205,
      "Ġt": 206,
      "he": 207,
      "Ġa": 208,
      "in": 209,
      "Ġthe": 210,
      "nd": 211,
      "Ġs": 212,
      "er": 213,
      "Ġw": 214,
      "ed": 215,
      "on": 216,
      "re": 217,
      "Ġ,": 218,
      "Ġo": 219,
      "Ġb": 220,
      "Ġf": 221,
      "it": 222,
      "at": 223,
      "Ġc": 224,
      "Ġand": 225,
      "en": 226,
      "Ġto": 227,
      "or": 228,
      "ar": 229,
      "is": 230,
      "an": 231,
      "as": 232,
      "Ġ.": 233,
      "Ġp": 234,
      "es": 235,
      "ing": 236,
      "Ġh": 237,
      "Ġin": 238,
      "ou": 239,
      "Ġof": 240,
      "al": 241,
      "Ġm": 242,
      "Ġd": 243,
      "om": 244,
      "Ġl": 245,
      "ic": 246,
      "ĠT": 247,
      "il": 248,
      "Ġwas": 249,
      "ĠS": 250,
      "ion": 251,
      "Ġth": 252,
      "le": 253,
      "Ġn": 254,
      "Ġhe": 255,
      "te": 256,
      "Ġg": 257,
      "ad": 258,
      "id": 259,
      "Ġ\"": 260,
      "ay": 261,
      "Ġre": 262,
      "Ġe": 263,
      "ent": 264,
      "ro": 265,
      "am": 266,
      "im": 267,
      "el": 268,
      "ĠThe": 269,
      "ac": 270,
      "ĠA": 271,
      "ir": 272,
      "et": 273,
      "st": 274,
      "Ġ1": 275,
      "end": 276,
      "Ġon": 277,
      "ĠH": 278,
      "ut": 279,
      "ver": 280,
      "ot": 281,
      "ly": 282,
      "ig": 283,
      "Ġ@": 284,
      "Ġbe": 285,
      "ĠM": 286,
      "ĠC": 287,
      "ĠB": 288,
      "ur": 289,
      "ow": 290,
      "ĠI": 291,
      "xt": 292,
      "Ġfor": 293,
      "ol": 294,
      "ith": 295,
      "ve": 296,
      "Ġit": 297,
      "of": 298,
      "Ġst": 299,
      "Ġwith": 300,
      "Ġu": 301,
      "text": 302,
      "endof": 303,
      "<|": 304,
      "|>": 305,
      "endoftext": 306,
      "Ġas": 307,
      "ter": 308,
      "Ġthat": 309,
      "Ġ'": 310,
      "ec": 311,
      "-@": 312,
      "Ġ@-@": 313,
      "ĠL": 314,
      "ce": 315,
      "ri": 316,
      "Ġwh": 317,
      "Ġr": 318,
      "Ġal": 319,
      "Ġhis": 320,
      "Ġis": 321,
      "ch": 322,
      "se": 323,
      "Ġ2": 324,
      "her": 325,
      "ul": 326,
      "ld": 327,
      "pp": 328,
      "ation": 329,
      "Ġan": 330,
      "ĠP": 331,
      "ted": 332,
      "Ġat": 333,
      "Ġsa": 334,
      "ain": 335,
      "ĠD": 336,
      "Ġher": 337,
      "and": 338,
      "ĠW": 339,
      "un": 340,
      "ĠR": 341,
      "Ġby": 342,
      "th": 343,
      "rom": 344,
      "ke": 345,
      "Ġy": 346,
      "ĠHe": 347,
      "Ġpl": 348,
      "ĠF": 349,
      "um": 350,
      "ag": 351,
      "oo": 352,
      "ĠJ": 353,
      "us": 354,
      "ĠG": 355,
      "Ġha": 356,
      "Ġcon": 357,
      "ĠN": 358,
      "Ġ)": 359,
      "Ġ(": 360,
      "ere": 361,
      "ers": 362,
      "Ġhad": 363,
      "Ġ19": 364,
      "ct": 365,
      "est": 366,
      "Ġsh": 367,
      "ill": 368,
      "Ġwere": 369,
      "ĠShe": 370,
      "ĠE": 371,
      "00": 372,
      "Ġfrom": 373,
      "Ġse": 374,
      "all": 375,
      "igh": 376,
      "ore": 377,
      "ard": 378,
      "ĠO": 379,
      "if": 380,
      "Ġcom": 381,
      "ew": 382,
      "os": 383,
      "ked": 384,
      "rou": 385,
      "ear": 386,
      "op": 387,
      "gh": 388,
      "ts": 389,
      "ily": 390,
      "Ġshe": 391,
      "Ġnot": 392,
      "ĠThey": 393,
      "Ġk": 394,
      "ould": 395,
      "Ġv": 396,
      "em": 397,
      "iv": 398,
      "ra": 399,
      "ack": 400,
      "Ġsu": 401,
      "res": 402,
      "Ġpro": 403,
      "ame": 404,
      "ong": 405,
      "ies": 406,
      "Ġsaid": 407,
      "Ġare": 408,
      "Ġex": 409,
      "ate": 410,
      "Ġde": 411,
      "Ġplay": 412,
      "ber": 413,
      "ist": 414,
      "qu": 415,
      "ud": 416,
      "Ġch": 417,
      "ab": 418,
      "Ġbut": 419,
      "Ġthey": 420,
      "Ġup": 421,
      "Ġsp": 422,
      "oc": 423,
      "our": 424,
      "ant": 425,
      "The": 426,
      "ich": 427,
      "Ġor": 428,
      "od": 429,
      "ess": 430,
      "ap": 431,
      "Ġday": 432,
      "very": 433,
      "ime": 434,
      "ide": 435,
      "ther": 436,
      "ome": 437,
      "ry": 438,
      "Ġso": 439,
      "ive": 440,
      "art": 441,
      "ated": 442,
      "ity": 443,
      "ell": 444,
      "ast": 445,
      "Ġtheir": 446,
      "ally": 447,
      "ĠK": 448,
      "ge": 449,
      "Ġtime": 450,
      "ĠIt": 451,
      "ight": 452,
      "ak": 453,
      "ip": 454,
      "ne": 455,
      "ĠIn": 456,
      "Ġyou": 457,
      "ment": 458,
      "ĠU": 459,
      "nt": 460,
      "ust": 461,
      "ort": 462,
      "Ġcl": 463,
      "hed": 464,
      "Ġwhich": 465,
      "hen": 466,
      "Ġhave": 467,
      "ved": 468,
      "ia": 469,
      "itt": 470,
      "uc": 471,
      "Ġle": 472,
      "ost": 473,
      "Ġj": 474,
      "ian": 475,
      "my": 476,
      "ine": 477,
      "Ġâ": 478,
      "Ġout": 479,
      "ous": 480,
      "ary": 481,
      "Ġhim": 482,
      "ord": 483,
      "ĠâĢ": 484,
      "ake": 485,
      "Ġthere": 486,
      "fter": 487,
      "ĠLily": 488,
      "Ġsc": 489,
      "Ġall": 490,
      "av": 491,
      "ial": 492,
      "og": 493,
      "ond": 494,
      "ish": 495,
      "ure": 496,
      "ind": 497,
      "Ġmom": 498,
      "ound": 499,
      "out": 500,
      "ie": 501,
      "Ġab": 502,
      "Ġ3": 503,
      "Ġtr": 504,
      "ĠSt": 505,
      "ater": 506,
      "Ġwho": 507,
      "ue": 508,
      "are": 509,
      "Ġro": 510,
      "Ġgo": 511,
      "Ġwor": 512,
      "irst": 513,
      "Ġli": 514,
      "ood": 515,
      "Ġag": 516,
      "Ġtw": 517,
      "ough": 518,
      "way": 519,
      "ice": 520,
      "au": 521,
      "ree": 522,
      "Ġsm": 523,
      "Ġthem": 524,
      "own": 525,
      "Ġinc": 526,
      "pl": 527,
      "ass": 528,
      "Ġman": 529,
      "Ġhapp": 530,
      "oy": 531,
      "ks": 532,
      "cc": 533,
      "Ġar": 534,
      "Ġvery": 535,
      "so": 536,
      "Ġits": 537,
      "Ġone": 538,
      "Ġint": 539,
      "one": 540,
      "'s": 541,
      "ep": 542,
      "rit": 543,
      "Ġfirst": 544,
      "ĠCh": 545,
      "ade": 546,
      "Ġad": 547,
      "Ġ200": 548,
      "ile": 549,
      "ittle": 550,
      "Ġwould": 551,
      "Ġne": 552,
      "ions": 553,
      "ub": 554,
      "Ġbec": 555,
      "ark": 556,
      "ff": 557,
      "Ġother": 558,
      "ach": 559,
      "Ġcont": 560,
      "Ġcomp": 561,
      "Ġalso": 562,
      "ect": 563,
      "ĠV": 564,
      "per": 565,
      "round": 566,
      "age": 567,
      "Ġlittle": 568,
      "ign": 569,
      "Ġtoo": 570,
      "oll": 571,
      "ire": 572,
      "riend": 573,
      "Ġcan": 574,
      "Ġ;": 575,
      "ĠY": 576,
      "Ġ20": 577,
      "ical": 578,
      "mer": 579,
      "Ġwe": 580,
      "Ġfriend": 581,
      "ace": 582,
      "iz": 583,
      "Ġover": 584,
      "Ġkn": 585,
      "Ġbig": 586,
      "Ġun": 587,
      "ug": 588,
      "Ġdo": 589,
      "orm": 590,
      "Ġen": 591,
      "Ġtwo": 592,
      "Ġsaw": 593,
      "ings": 594,
      "ited": 595,
      "ĠTh": 596,
      "Ġthis": 597,
      "Ġdid": 598,
      "Ġhappy": 599,
      "Ġper": 600,
      "Ġres": 601,
      "ans": 602,
      "Ġhas": 603,
      "Ġcould": 604,
      "pt": 605,
      "On": 606,
      "Ġbeen": 607,
      "Ġoff": 608,
      "ance": 609,
      "Ġ4": 610,
      "Ġnew": 611,
      "ick": 612,
      "ook": 613,
      "Ġrec": 614,
      "wn": 615,
      "Ġdis": 616,
      "Ġme": 617,
      "ll": 618,
      "ence": 619,
      ".@": 620,
      "Ġ@.@": 621,
      "Ġ5": 622,
      "Ġpre": 623,
      "Ġapp": 624,
      "Ġno": 625,
      "ite": 626,
      "Ġyear": 627,
      "Ġ18": 628,
      "Ġinto": 629,
      "Ġafter": 630,
      "Ġlo": 631,
      "ĠâĢĵ": 632,
      "Ġfe": 633,
      "Ġim": 634,
      "Ġwhen": 635,
      ".\"": 636,
      "ĠTim": 637,
      "Ġagain": 638,
      "Ġmore": 639,
      "ely": 640,
      "Ġ:": 641,
      "Ġfl": 642,
      "Ġdec": 643,
      "uring": 644,
      "Ġsome": 645,
      "ang": 646,
      ",@": 647,
      "Ġ@,@": 648,
      "Ġus": 649,
      "urn": 650,
      "Ġwan": 651,
      "ition": 652,
      "Ġback": 653,
      "ress": 654,
      "ru": 655,
      "ory": 656,
      "Ġser": 657,
      "ys": 658,
      "irl": 659,
      "oin": 660,
      "land": 661,
      "Ġte": 662,
      "Ġpart": 663,
      "lud": 664,
      "amed": 665,
      "'t": 666,
      "Ġev": 667,
      "ction": 668,
      "vel": 669,
      "Ġdes": 670,
      "Ġmade": 671,
      "we": 672,
      "ations": 673,
      "nder": 674,
      "ful": 675,
      "tem": 676,
      "Once": 677,
      "old": 678,
      "Ġupon": 679,
      "Ġwanted": 680,
      "Ġthan": 681,
      "!\"": 682,
      "ird": 683,
      "able": 684,
      "Ġ201": 685,
      "ens": 686,
      "Ġhel": 687,
      "ph": 688,
      "Ġbet": 689,
      "les": 690,
      "act": 691,
      "Ġabout": 692,
      "ase": 693,
      "rough": 694,
      "reat": 695,
      "ild": 696,
      "ng": 697,
      "Ġstar": 698,
      "ward": 699,
      "Ġinclud": 700,
      "ied": 701,
      "Ġgirl": 702,
      "ious": 703,
      "ib": 704,
      "here": 705,
      "man": 706,
      "ount": 707,
      "Ġwent": 708,
      "Ġcar": 709,
      "Ġhelp": 710,
      "oth": 711,
      "Ġlike": 712,
      "ric": 713,
      "Ġthen": 714,
      "Ġnamed": 715,
      "Ġco": 716,
      "ased": 717,
      "iss": 718,
      "Ġfound": 719,
      "ons": 720,
      "Ġaround": 721,
      "vers": 722,
      "Ġrem": 723,
      "ult": 724,
      "ail": 725,
      "ors": 726,
      "Ġ6": 727,
      "ĠBen": 728,
      "amp": 729,
      "elt": 730,
      "Ġbl": 731,
      "Ġsay": 732,
      "Ġfun": 733,
      "anc": 734,
      "Ġpr": 735,
      "get": 736,
      "ates": 737,
      "Ġqu": 738,
      "side": 739,
      "ĠUn": 740,
      "ered": 741,
      "als": 742,
      "Ġpe": 743,
      "fer": 744,
      "Ġinter": 745,
      "Ġcomm": 746,
      "Ġran": 747,
      "Ġspec": 748,
      "Ġfin": 749,
      "omet": 750,
      "Ġmo": 751,
      "Ġgame": 752,
      "Ġend": 753,
      "gan": 754,
      "hing": 755,
      "Ġfriends": 756,
      "Ġsec": 757,
      "Ġunder": 758,
      "fore": 759,
      "Ġ7": 760,
      "ave": 761,
      "ollow": 762,
      "ĠOne": 763,
      "Ġbr": 764,
      "ob": 765,
      "Ġonly": 766,
      "ning": 767,
      "uch": 768,
      "rib": 769,
      "ict": 770,
      "Ġam": 771,
      "hn": 772,
      "Ġrep": 773,
      "Ġimp": 774,
      "Ġwhat": 775,
      "Ġloo": 776,
      "Ġfelt": 777,
      "ouse": 778,
      "ose": 779,
      "ise": 780,
      "Ġmake": 781,
      "Ġmost": 782,
      "Ġbu": 783,
      "ĠAl": 784,
      "Ġshow": 785,
      "ĠTom": 786,
      "Ġwhile": 787,
      "hes": 788,
      "ided": 789,
      "ft": 790,
      "Ġear": 791,
      "Ġ8": 792,
      "att": 793,
      "Ġthree": 794,
      "ath": 795,
      "iled": 796,
      "Ġsee": 797,
      "Ġcons": 798,
      "ents": 799,
      "ilm": 800,
      "form": 801,
      "ished": 802,
      "Ġthrough": 803,
      "?\"": 804,
      "Ġgr": 805,
      "Ġchar": 806,
      "ix": 807,
      "Ġduring": 808,
      "ween": 809,
      "Ġcall": 810,
      "ĠMar": 811,
      "ause": 812,
      "Ġsong": 813,
      "ubl": 814,
      "Ġcol": 815,
      "ried": 816,
      "ax": 817,
      "ĠAn": 818,
      "Ġdown": 819,
      "Ġwhere": 820,
      "orth": 821,
      "Ġ9": 822,
      "ason": 823,
      "Ġbefore": 824,
      "Ġrel": 825,
      "Ġcent": 826,
      "ĠJo": 827,
      "Ġlater": 828,
      "Ġasked": 829,
      "ared": 830,
      "ĠAs": 831,
      "Ġthough": 832,
      "Ġop": 833,
      "Ġsur": 834,
      "Ġsomet": 835,
      "Ġbetween": 836,
      "Ġbo": 837,
      "oun": 838,
      "Ġhome": 839,
      "aw": 840,
      "hip": 841,
      "Ġret": 842,
      "Ġwork": 843,
      "rop": 844,
      "ĠYou": 845,
      "Ġfollow": 846,
      "Ġstr": 847,
      "Ġ00": 848,
      "Ġacc": 849,
      "Ġany": 850,
      "ived": 851,
      "red": 852,
      "ever": 853,
      "pped": 854,
      "Ġbro": 855,
      "Ġatt": 856,
      "Ġ199": 857,
      "ĠSp": 858,
      "outh": 859,
      "Ġlong": 860,
      "Ġnum": 861,
      "Ġloved": 862,
      "na": 863,
      "Ġprod": 864,
      "ros": 865,
      "Ġhow": 866,
      "ating": 867,
      "Ġmany": 868,
      "Ġfilm": 869,
      "Ġrun": 870,
      "led": 871,
      "ames": 872,
      "ane": 873,
      "Ġaway": 874,
      "ving": 875,
      "Ġtook": 876,
      "ational": 877,
      "Ġboy": 878,
      "ton": 879,
      "Ġbird": 880,
      "ĠAr": 881,
      "Ġac": 882,
      "elf": 883,
      "tern": 884,
      "Ġbeing": 885,
      "other": 886,
      "ĠTimmy": 887,
      "iew": 888,
      "ool": 889,
      "Ġboth": 890,
      "ren": 891,
      "Ġhigh": 892,
      "ank": 893,
      "Ġact": 894,
      "ron": 895,
      "Ġwill": 896,
      "In": 897,
      "Ġrele": 898,
      "ower": 899,
      "Ġstarted": 900,
      "Ġele": 901,
      "Ġsl": 902,
      "ened": 903,
      "Ġlooked": 904,
      "Ġtoget": 905,
      "Ġtogether": 906,
      "ular": 907,
      "Ġsuch": 908,
      "ĠBut": 909,
      "ĠNew": 910,
      "atch": 911,
      "ener": 912,
      "Ġsmiled": 913,
      "ised": 914,
      "Ġpos": 915,
      "Ġgood": 916,
      "ters": 917,
      "Ġexc": 918,
      "meric": 919,
      "Ġyears": 920,
      "Ġunt": 921,
      "Ġput": 922,
      "Ġreg": 923,
      "ained": 924,
      "Ġused": 925,
      "enc": 926,
      "Ġ000": 927,
      "ty": 928,
      "ĠLe": 929,
      "ock": 930,
      "iel": 931,
      "ĠAmeric": 932,
      "Ġcare": 933,
      "Ġrecord": 934,
      "uck": 935,
      "Ġsub": 936,
      "Ġsecond": 937,
      "az": 938,
      "Ġke": 939,
      "Ġcame": 940,
      "ned": 941,
      "air": 942,
      "Ġuntil": 943,
      "Ġget": 944,
      "ral": 945,
      "Ġbecame": 946,
      "Ġind": 947,
      "Ġfour": 948,
      "Ġevery": 949,
      "ision": 950,
      "Ġwar": 951,
      "ĠThis": 952,
      "Ġset": 953,
      "Ġep": 954,
      "bum": 955,
      "Ġmus": 956,
      "ident": 957,
      "Ġform": 958,
      "Ġbecause": 959,
      "Ġpark": 960,
      "Ġdef": 961,
      "Ġseason": 962,
      "ures": 963,
      "ather": 964,
      "ember": 965,
      "Ġlar": 966,
      "Ġass": 967,
      "ople": 968,
      "Ġexp": 969,
      "Ġmon": 970,
      "ual": 971,
      "io": 972,
      "ĠCom": 973,
      "ale": 974,
      "Ġeach": 975,
      "Ġold": 976,
      "ven": 977,
      "ific": 978,
      "row": 979,
      "Ġwant": 980,
      "Ġsing": 981,
      "ove": 982,
      "Ġsays": 983,
      "ged": 984,
      "Ġmuch": 985,
      "vent": 986,
      "Lily": 987,
      "ode": 988,
      "Ġplaying": 989,
      "Ġsomething": 990,
      "Ġsupp": 991,
      "Ġcalled": 992,
      "ics": 993,
      "Ġent": 994,
      "Ġsmall": 995,
      "pr": 996,
      "Ġfam": 997,
      "Ġfind": 998,
      "Ġdif": 999,
      "Ġteam": 1000,
      "son": 1001,
      "One": 1002,
      "ired": 1003,
      "aking": 1004,
      "ara": 1005,
      "Ġmy": 1006,
      "orn": 1007,
      "ĠOn": 1008,
      "Ġpubl": 1009,
      "Ġ10": 1010,
      "Ġalbum": 1011,
      "Ġepis": 1012,
      "Ġloc": 1013,
      "Ġ/": 1014,
      "ny": 1015,
      "Ġcre": 1016,
      "Ġplayed": 1017,
      "ink": 1018,
      "ier": 1019,
      "ull": 1020,
      "ĠSh": 1021,
      "Ġpres": 1022,
      "Ġnear": 1023,
      "tend": 1024,
      "Ġwell": 1025,
      "Ġmin": 1026,
      "Ġif": 1027,
      "ĠRe": 1028,
      "alk": 1029,
      "ized": 1030,
      ",\"": 1031,
      "Ġjust": 1032,
      "Ġdecided": 1033,
      "ince": 1034,
      "ross": 1035,
      "ĠWh": 1036,
      "ury": 1037,
      "Ġagainst": 1038,
      "Ġpeople": 1039,
      "Ġnumber": 1040,
      "Ġexpl": 1041,
      "ife": 1042,
      "ĠJohn": 1043,
      "its": 1044,
      "Ġadd": 1045,
      "Ġmet": 1046,
      "Ġ17": 1047,
      "velop": 1048,
      "Ġcontin": 1049,
      "Ġown": 1050,
      "Ġhand": 1051,
      "Ġsad": 1052,
      "erm": 1053,
      "Ġtake": 1054,
      "Ã¢": 1055,
      "ield": 1056,
      "Ġwater": 1057,
      "up": 1058,
      "Ġcharac": 1059,
      "ways": 1060,
      "Ĥ¬": 1061,
      "ĠAt": 1062,
      "Ġsever": 1063,
      "Ġ0": 1064,
      "igin": 1065,
      "ued": 1066,
      "Ġbegan": 1067,
      "ĠWe": 1068,
      "âĤ¬": 1069,
      "Ġinv": 1070,
      "Ġincluding": 1071,
      "Ġseries": 1072,
      "any": 1073,
      "ĠBrit": 1074,
      "Ġball": 1075,
      "Ġfeel": 1076,
      "Ġair": 1077,
      "aj": 1078,
      "Ġem": 1079,
      "Ġins": 1080,
      "Ġsk": 1081,
      "Ġsw": 1082,
      "Ġrece": 1083,
      "Ġappear": 1084,
      "Ġ12": 1085,
      "ĠUnited": 1086,
      "Ġgot": 1087,
      "iet": 1088,
      "Ġlook": 1089,
      "Ġthought": 1090,
      "Ġcap": 1091,
      "Ġthings": 1092,
      "Ġuse": 1093,
      "ĠâĢĶ": 1094,
      "Ġlead": 1095,
      "ins": 1096,
      "roup": 1097,
      "ting": 1098,
      "Ġhouse": 1099,
      "ines": 1100,
      "chool": 1101,
      "Ġship": 1102,
      "Ġpol": 1103,
      "ities": 1104,
      "ork": 1105,
      "Ġmain": 1106,
      "ble": 1107,
      "augh": 1108,
      "Ġred": 1109,
      "ober": 1110,
      "ually": 1111,
      "Ġ194": 1112,
      "Ġob": 1113,
      "den": 1114,
      "Ġdep": 1115,
      "Ġbel": 1116,
      "Ġ15": 1117,
      "Ġgave": 1118,
      "ves": 1119,
      "Ġstud": 1120,
      "der": 1121,
      "Ġknow": 1122,
      "vern": 1123,
      "Ġdevelop": 1124,
      "Ġbest": 1125,
      "ĠEng": 1126,
      "Ġpop": 1127,
      "ĠAfter": 1128,
      "ley": 1129,
      "ram": 1130,
      "ner": 1131,
      "Ġpass": 1132,
      "Ġperform": 1133,
      "by": 1134,
      "Ġ198": 1135,
      "Ġepisode": 1136,
      "Ġorigin": 1137,
      "Ġlear": 1138,
      "olog": 1139,
      "Ġdesc": 1140,
      "ĠMay": 1141,
      "Ġspecial": 1142,
      "Ġyour": 1143,
      "Ġmar": 1144,
      "Ġmill": 1145,
      "Ġeven": 1146,
      "Ġsign": 1147,
      "Ġdire": 1148,
      "iver": 1149,
      "ĠHer": 1150,
      "Ġway": 1151,
      "Ġhug": 1152,
      "Ġnever": 1153,
      "though": 1154,
      "Ġliked": 1155,
      "ative": 1156,
      "ĠSc": 1157,
      "Ġdog": 1158,
      "Ġoutside": 1159,
      "ĠBr": 1160,
      "Ġ16": 1161,
      "Ġmusic": 1162,
      "ments": 1163,
      "Ġreturn": 1164,
      "oot": 1165,
      "Ġknown": 1166,
      "ced": 1167,
      "Ġdist": 1168,
      "Ġseveral": 1169,
      "Ġdisc": 1170,
      "Ġcomple": 1171,
      "Ġhead": 1172,
      "iam": 1173,
      "Ġturn": 1174,
      "tain": 1175,
      "Ġstill": 1176,
      "ched": 1177,
      "osed": 1178,
      "ĠWar": 1179,
      "Ġwrit": 1180,
      "ĠAnd": 1181,
      "ĠInd": 1182,
      "Ġfamily": 1183,
      "Ġalways": 1184,
      "Ġpoin": 1185,
      "Ġland": 1186,
      "Ġ11": 1187,
      "ĠSam": 1188,
      "ĠZ": 1189,
      "Ġmil": 1190,
      "ots": 1191,
      "Ġresp": 1192,
      "Ġneed": 1193,
      "Ġalong": 1194,
      "ĠAmerican": 1195,
      "Ġdesign": 1196,
      "Ġmay": 1197,
      "ĠCon": 1198,
      "Ġtrans": 1199,
      "Ġph": 1200,
      "Ġearly": 1201,
      "Th": 1202,
      "Ġcr": 1203,
      "Ġconc": 1204,
      "ĠHow": 1205,
      "Ġcount": 1206,
      "ĠHis": 1207,
      "Ġexcited": 1208,
      "Ġplan": 1209,
      "Ġinf": 1210,
      "Ġnow": 1211,
      "Ġ197": 1212,
      "Ġest": 1213,
      "ĠCl": 1214,
      "une": 1215,
      "ially": 1216,
      "Ġprov": 1217,
      "Ġgu": 1218,
      "Ġgener": 1219,
      "Ġsame": 1220,
      "Ġthese": 1221,
      "ĠAust": 1222,
      "ash": 1223,
      "Ġ196": 1224,
      "view": 1225,
      "Ġdidn": 1226,
      "Ġgroup": 1227,
      "Ġprom": 1228,
      "imes": 1229,
      "self": 1230,
      "ady": 1231,
      "erson": 1232,
      "ĠCan": 1233,
      "ĠFr": 1234,
      "Ġeff": 1235,
      "Ġpar": 1236,
      "Ġdiffer": 1237,
      "wards": 1238,
      "bers": 1239,
      "Ġtra": 1240,
      "ov": 1241,
      "ck": 1242,
      "Ġreleased": 1243,
      "ured": 1244,
      "Ġpo": 1245,
      "ĠBl": 1246,
      "Ġbuild": 1247,
      "Ġart": 1248,
      "ah": 1249,
      "Ġtree": 1250,
      "Ġworld": 1251,
      "Ġmod": 1252,
      "ible": 1253,
      "Ġfeat": 1254,
      "ern": 1255,
      "ĠMom": 1256,
      "Ġplace": 1257,
      "Ġanim": 1258,
      "ists": 1259,
      "Ġrest": 1260,
      "inc": 1261,
      "ism": 1262,
      "Ġdad": 1263,
      "Ġscared": 1264,
      "Ġext": 1265,
      "Ġwin": 1266,
      "Ġnext": 1267,
      "Ġreal": 1268,
      "Ġoffic": 1269,
      "ump": 1270,
      "ĠBritish": 1271,
      "ium": 1272,
      "ĠJack": 1273,
      "ange": 1274,
      "aced": 1275,
      "cted": 1276,
      "ĠUS": 1277,
      "ivers": 1278,
      "Ġcle": 1279,
      "Ġsucc": 1280,
      "Ġoper": 1281,
      "Ġmillion": 1282,
      "ystem": 1283,
      "Ġtold": 1284,
      "Ġroom": 1285,
      "und": 1286,
      "Ġrepl": 1287,
      "Ġcrit": 1288,
      "Ġ$": 1289,
      "Ġwind": 1290,
      "Ġgl": 1291,
      "Ġsuccess": 1292,
      "Ġbre": 1293,
      "ĠMax": 1294,
      "Ġlet": 1295,
      "ĠWor": 1296,
      "ĠBe": 1297,
      "ient": 1298,
      "ĠAll": 1299,
      "They": 1300,
      "uced": 1301,
      "ek": 1302,
      "Ġleft": 1303,
      "ret": 1304,
      "ĠSep": 1305,
      "ĠWhen": 1306,
      "Ġfore": 1307,
      "Ġanother": 1308,
      "Ġdr": 1309,
      "ajor": 1310,
      "Ġcur": 1311,
      "akes": 1312,
      "Ġsim": 1313,
      "Ġtoys": 1314,
      "Ã©": 1315,
      "ution": 1316,
      "Ġ13": 1317,
      "ĠIs": 1318,
      "ger": 1319,
      "Ġdescrib": 1320,
      "Ġhur": 1321,
      "Ġ195": 1322,
      "Ġchild": 1323,
      "Ġname": 1324,
      "ains": 1325,
      "ĠAug": 1326,
      "Ġstory": 1327,
      "Ġkm": 1328,
      "ĠDe": 1329,
      "ĠCar": 1330,
      "used": 1331,
      "Ġste": 1332,
      "Ġmommy": 1333,
      "ached": 1334,
      "br": 1335,
      "ster": 1336,
      "oon": 1337,
      "Ġclass": 1338,
      "yp": 1339,
      "Ġgreat": 1340,
      "ute": 1341,
      "ĠStates": 1342,
      "tember": 1343,
      "Ġsun": 1344,
      "Ġed": 1345,
      "Ġocc": 1346,
      "ĠAugust": 1347,
      "Ġche": 1348,
      "ĠSeptember": 1349,
      "Ġnorth": 1350,
      "orted": 1351,
      "ined": 1352,
      "Ġwa": 1353,
      "ats": 1354,
      "ĠCol": 1355,
      "Ġcharacter": 1356,
      "Ġmem": 1357,
      "Ġshould": 1358,
      "ject": 1359,
      "thern": 1360,
      "ĠGer": 1361,
      "Ġprodu": 1362,
      "be": 1363,
      "ina": 1364,
      "Ġknew": 1365,
      "Ġfar": 1366,
      "Ġschool": 1367,
      "ored": 1368,
      "Ġ14": 1369,
      "ym": 1370,
      "Ġlist": 1371,
      "ives": 1372,
      "oss": 1373,
      "ĠSe": 1374,
      "Ġgovern": 1375,
      "idge": 1376,
      "ues": 1377,
      "ĠWorld": 1378,
      "Ġtried": 1379,
      "ĠAd": 1380,
      "gg": 1381,
      "ement": 1382,
      "rew": 1383,
      "Ġfive": 1384,
      "ets": 1385,
      "Ġdel": 1386,
      "Ġconst": 1387,
      "Ġhist": 1388,
      "ars": 1389,
      "Ġfollowing": 1390,
      "ĠFor": 1391,
      "Ġfle": 1392,
      "ris": 1393,
      "ik": 1394,
      "Ġconf": 1395,
      "ĠJu": 1396,
      "Ġ193": 1397,
      "Ġconsid": 1398,
      "ling": 1399,
      "Ġtop": 1400,
      "Ġvis": 1401,
      "ility": 1402,
      "reen": 1403,
      "Ġreceived": 1404,
      "Ġcentury": 1405,
      "Ġopen": 1406,
      "Ġinside": 1407,
      "gin": 1408,
      "aining": 1409,
      "Ġbetter": 1410,
      "ten": 1411,
      "ately": 1412,
      "Ġbatt": 1413,
      "Ġsor": 1414,
      "ission": 1415,
      "uth": 1416,
      "Ġcity": 1417,
      "Ġdifferent": 1418,
      "avy": 1419,
      "ĠHowever": 1420,
      "Ġarea": 1421,
      "ected": 1422,
      "ĠAustral": 1423,
      "iving": 1424,
      "Ġ%": 1425,
      "ĠOct": 1426,
      "Ġmed": 1427,
      "Ġpartic": 1428,
      "ister": 1429,
      "Ġvar": 1430,
      "ĠMe": 1431,
      "Ġann": 1432,
      "Ġide": 1433,
      "Ġsystem": 1434,
      "Ġground": 1435,
      "Ġstate": 1436,
      "Ġmag": 1437,
      "Ġsound": 1438,
      "ike": 1439,
      "ok": 1440,
      "ilt": 1441,
      "Ġstrong": 1442,
      "Ġwon": 1443,
      "ces": 1444,
      "Ġref": 1445,
      "Ġband": 1446,
      "Ġtoy": 1447,
      "Ġ191": 1448,
      "ĠNorth": 1449,
      "raw": 1450,
      "Ġbook": 1451,
      "ĠOctober": 1452,
      "urch": 1453,
      "Ġwr": 1454,
      "med": 1455,
      "Ġbox": 1456,
      "Ġ]": 1457,
      "Ġsince": 1458,
      "uss": 1459,
      "oud": 1460,
      "illed": 1461,
      "Ġlarge": 1462,
      "ĠDec": 1463,
      "aut": 1464,
      "Ġline": 1465,
      "els": 1466,
      "Ġtry": 1467,
      "ĠGr": 1468,
      "Ġmajor": 1469,
      "Ġ[": 1470,
      "ĠQ": 1471,
      "rote": 1472,
      "anu": 1473,
      "ĠJune": 1474,
      "ene": 1475,
      "Ġpublic": 1476,
      "ney": 1477,
      "atter": 1478,
      "Ġbeh": 1479,
      "ĠGerman": 1480,
      "Ġheld": 1481,
      "ball": 1482,
      "ians": 1483,
      "ctor": 1484,
      "mber": 1485,
      "esp": 1486,
      "Ġcontro": 1487,
      "Ġtri": 1488,
      "denly": 1489,
      "ales": 1490,
      "Ġheard": 1491,
      "ively": 1492,
      "ĠEd": 1493,
      "Ġsorry": 1494,
      "ording": 1495,
      "Ġjoin": 1496,
      "Ġimport": 1497,
      "Ġlife": 1498,
      "ott": 1499,
      "Ġallow": 1500,
      "Ġleg": 1501,
      "Ġdon": 1502,
      "Ġcareful": 1503,
      "Ġfire": 1504,
      "Ġfur": 1505,
      "erv": 1506,
      "aged": 1507,
      "ional": 1508,
      "Ġevent": 1509,
      "Ġinst": 1510,
      "ently": 1511,
      "raft": 1512,
      "Ġri": 1513,
      "ĠJuly": 1514,
      "ects": 1515,
      "enn": 1516,
      "ĠNove": 1517,
      "ĠFl": 1518,
      "Ġcour": 1519,
      "ĠNovember": 1520,
      "Ġhard": 1521,
      "Ġsingle": 1522,
      "ĠKing": 1523,
      "Ġbelie": 1524,
      "eb": 1525,
      "Ġcolle": 1526,
      "vious": 1527,
      "ĠPh": 1528,
      "rist": 1529,
      "Ġadv": 1530,
      "Ġlove": 1531,
      "Ġhaving": 1532,
      "Ġgames": 1533,
      "Ġincre": 1534,
      "Ġsouth": 1535,
      "aim": 1536,
      "But": 1537,
      "pril": 1538,
      "lish": 1539,
      "Ġcontinued": 1540,
      "ĠApril": 1541,
      "Ġwalk": 1542,
      "Ġperson": 1543,
      "oman": 1544,
      "ĠComm": 1545,
      "over": 1546,
      "ody": 1547,
      "Ġpower": 1548,
      "Ġright": 1549,
      "ĠHar": 1550,
      "Ġ30": 1551,
      "ural": 1552,
      "ĠWill": 1553,
      "apan": 1554,
      "Ġfinal": 1555,
      "Ġopened": 1556,
      "ox": 1557,
      "Ġcome": 1558,
      "Ġcamp": 1559,
      "Ġless": 1560,
      "ĠPl": 1561,
      "Ġlast": 1562,
      "Ġcat": 1563,
      "fe": 1564,
      "Ġmonth": 1565,
      "Ġca": 1566,
      "ĠMarch": 1567,
      "eter": 1568,
      "..": 1569,
      "ma": 1570,
      "Ġ25": 1571,
      "Ġsn": 1572,
      "ĠJapan": 1573,
      "cept": 1574,
      "roud": 1575,
      "ĠAnna": 1576,
      "Ġdue": 1577,
      "Ġfew": 1578,
      "ĠSte": 1579,
      "Ġwrote": 1580,
      "Ġtre": 1581,
      "Ġappro": 1582,
      "ĠSara": 1583,
      "ĠMc": 1584,
      "ert": 1585,
      "Ġthird": 1586,
      "Ġincluded": 1587,
      "Ġcond": 1588,
      "ple": 1589,
      "alf": 1590,
      "ified": 1591,
      "Ġkind": 1592,
      "ience": 1593,
      "ĠEvery": 1594,
      "Ġsix": 1595,
      "Ġshort": 1596,
      "Ġlate": 1597,
      "Ġvers": 1598,
      "Ġproud": 1599,
      "ĠDecember": 1600,
      "Ġtit": 1601,
      "ĠThere": 1602,
      "ĠTr": 1603,
      "ung": 1604,
      "aster": 1605,
      "Ġattack": 1606,
      "bed": 1607,
      "Ġgra": 1608,
      "Ġstorm": 1609,
      "Ġcouldn": 1610,
      "ĠFrom": 1611,
      "Ġsoon": 1612,
      "rod": 1613,
      "Ġbus": 1614,
      "ĠSouth": 1615,
      "orts": 1616,
      "Ġbased": 1617,
      "Ġtown": 1618,
      "Ġsqu": 1619,
      "Ġgun": 1620,
      "Ġeng": 1621,
      "Wh": 1622,
      "Ġvo": 1623,
      "Ġmove": 1624,
      "Ġlearned": 1625,
      "anuary": 1626,
      "ically": 1627,
      "ĠJanuary": 1628,
      "Ġlost": 1629,
      "ages": 1630,
      "Ġrequ": 1631,
      "ital": 1632,
      "ps": 1633,
      "Ġkeep": 1634,
      "rown": 1635,
      "ature": 1636,
      "Ġorgan": 1637,
      "Ġdescribed": 1638,
      "Ġbear": 1639,
      "ague": 1640,
      "Ġclos": 1641,
      "ness": 1642,
      "Ġtrack": 1643,
      "Ġfr": 1644,
      "dy": 1645,
      "Ġside": 1646,
      "Ġstand": 1647,
      "Ġserv": 1648,
      "Ġsold": 1649,
      "Ġarri": 1650,
      "tended": 1651,
      "Ġmen": 1652,
      "Ġdem": 1653,
      "ĠYork": 1654,
      "Ġstay": 1655,
      "ĠGe": 1656,
      "Ġstre": 1657,
      "Ġdays": 1658,
      "Ġprog": 1659,
      "Ġled": 1660,
      "Ġdam": 1661,
      "Ġ...": 1662,
      "Ġ192": 1663,
      "Ġreached": 1664,
      "ĠGu": 1665,
      "Ġdeath": 1666,
      "Ġgovernment": 1667,
      "ms": 1668,
      "Ġthose": 1669,
      "Ġbuilt": 1670,
      "yl": 1671,
      "Ġrock": 1672,
      "Ġfav": 1673,
      "ĠEu": 1674,
      "Ġposs": 1675,
      "rench": 1676,
      "Ġmaking": 1677,
      "Ġimportant": 1678,
      "Ġcast": 1679,
      "Ġdri": 1680,
      "ides": 1681,
      "Ġprevious": 1682,
      "Tom": 1683,
      "Ġlived": 1684,
      "Ġdest": 1685,
      "Ġho": 1686,
      "Ġhimself": 1687,
      "Ġel": 1688,
      "ĠÂ": 1689,
      "Ġdoes": 1690,
      "eng": 1691,
      "Ġpri": 1692,
      "Ġterm": 1693,
      "Ġattem": 1694,
      "Ġhugged": 1695,
      "iod": 1696,
      "Ġspecies": 1697,
      "Ġview": 1698,
      "por": 1699,
      "ĠII": 1700,
      "sh": 1701,
      "Ġgoing": 1702,
      "omin": 1703,
      "ese": 1704,
      "Ġreview": 1705,
      "Ġdet": 1706,
      "iversity": 1707,
      "Ġang": 1708,
      "ilar": 1709,
      "ĠEm": 1710,
      "ruct": 1711,
      "ants": 1712,
      "Ġprop": 1713,
      "iny": 1714,
      "ĠPr": 1715,
      "uddenly": 1716,
      "Ġoriginal": 1717,
      "ĠOr": 1718,
      "Ġever": 1719,
      "Ġport": 1720,
      "ĠChrist": 1721,
      "app": 1722,
      "itten": 1723,
      "Ġwithout": 1724,
      "ĠPar": 1725,
      "Ġnice": 1726,
      "ards": 1727,
      "Ġnight": 1728,
      "ĠBy": 1729,
      "Mom": 1730,
      "Ġsupport": 1731,
      "Ġ100": 1732,
      "Ġspe": 1733,
      "Ġiss": 1734,
      "Ġav": 1735,
      "arden": 1736,
      "Ġfly": 1737,
      "ont": 1738,
      "Ġbad": 1739,
      "Ġcommand": 1740,
      "Ġmoved": 1741,
      "Ġopp": 1742,
      "irc": 1743,
      "Ġexper": 1744,
      "ĠFrench": 1745,
      "Ġquick": 1746,
      "ideo": 1747,
      "Ġanimals": 1748,
      "ories": 1749,
      "Ġey": 1750,
      "Ġhum": 1751,
      "ids": 1752,
      "itions": 1753,
      "ĠTe": 1754,
      "Ġeat": 1755,
      "Ġpresent": 1756,
      "isted": 1757,
      "ior": 1758,
      "Ġbas": 1759,
      "Ġalthough": 1760,
      "Ġclim": 1761,
      "Ġidea": 1762,
      "Ġwithin": 1763,
      "ham": 1764,
      "yc": 1765,
      "let": 1766,
      "Ġbeaut": 1767,
      "oci": 1768,
      "ense": 1769,
      "day": 1770,
      "Ġaddition": 1771,
      "iec": 1772,
      "Ġmid": 1773,
      "Ġla": 1774,
      "ĠNational": 1775,
      "Ġperiod": 1776,
      "Ġpain": 1777,
      "Ġbar": 1778,
      "ize": 1779,
      "'m": 1780,
      "reed": 1781,
      "ape": 1782,
      "Ġmor": 1783,
      "Ġcover": 1784,
      "Ġpat": 1785,
      "ĠMin": 1786,
      "Ġseen": 1787,
      "Ġoften": 1788,
      "Ġhig": 1789,
      "gy": 1790,
      "Ġjump": 1791,
      "Ġformer": 1792,
      "ĠFeb": 1793,
      "ights": 1794,
      "Ġinit": 1795,
      "ries": 1796,
      "ruary": 1797,
      "Ġstart": 1798,
      "ĠFebruary": 1799,
      "ogra": 1800,
      "ony": 1801,
      "Ġmatch": 1802,
      "Ġhop": 1803,
      "lev": 1804,
      "ences": 1805,
      "Ġmembers": 1806,
      "ulation": 1807,
      "ĠEurop": 1808,
      "Ġroad": 1809,
      "ivision": 1810,
      "iven": 1811,
      "iful": 1812,
      "aug": 1813,
      "He": 1814,
      "lu": 1815,
      "Ġfell": 1816,
      "Ġ21": 1817,
      "Ġfield": 1818,
      "Ġfull": 1819,
      "oute": 1820,
      "Ġestab": 1821,
      "Ġfood": 1822,
      "Ġpic": 1823,
      "esc": 1824,
      "Ġdoll": 1825,
      "bit": 1826,
      "ĠMan": 1827,
      "Ġlight": 1828,
      "urs": 1829,
      "itary": 1830,
      "Ġhowever": 1831,
      "ĠNo": 1832,
      "arch": 1833,
      "Ġshare": 1834,
      "Ġresult": 1835,
      "Ġpost": 1836,
      "par": 1837,
      "Ġfollowed": 1838,
      "ection": 1839,
      "Ġant": 1840,
      "ested": 1841,
      "ĠSo": 1842,
      "less": 1843,
      "ĠEurope": 1844,
      "uted": 1845,
      "Ġsky": 1846,
      "bo": 1847,
      "Ġfoot": 1848,
      "ropical": 1849,
      "Ġchildren": 1850,
      "Ġgive": 1851,
      "ĠWilliam": 1852,
      "atic": 1853,
      "Ġbrother": 1854,
      "After": 1855,
      "Ġz": 1856,
      "It": 1857,
      "yn": 1858,
      "Ġhold": 1859,
      "Ġread": 1860,
      "Ġ24": 1861,
      "thing": 1862,
      "Ġsent": 1863,
      "ront": 1864,
      "alked": 1865,
      "uff": 1866,
      "ush": 1867,
      "Ġkept": 1868,
      "estern": 1869,
      "ches": 1870,
      "roy": 1871,
      "When": 1872,
      "aken": 1873,
      "ream": 1874,
      "Ġfurther": 1875,
      "Ġsugg": 1876,
      "Ġgarden": 1877,
      "Ġbecome": 1878,
      "Ġrelease": 1879,
      "Ġpolit": 1880,
      "Ġ2010": 1881,
      "Ġrole": 1882,
      "ĠBar": 1883,
      "Ġhalf": 1884,
      "ours": 1885,
      "Ġyoung": 1886,
      "ĠWest": 1887,
      "ops": 1888,
      "Ġamong": 1889,
      "Ġsimilar": 1890,
      "tead": 1891,
      "bs": 1892,
      "Ġwat": 1893,
      "Ġconsidered": 1894,
      "ĠPro": 1895,
      "Ġequ": 1896,
      "ances": 1897,
      "Ġfast": 1898,
      "ĠEngland": 1899,
      "ator": 1900,
      "Ġmean": 1901,
      "ech": 1902,
      "que": 1903,
      "Ġvideo": 1904,
      "line": 1905,
      "Ġtyp": 1906,
      "alth": 1907,
      "Ġweek": 1908,
      "Ġleav": 1909,
      "Ġelect": 1910,
      "Ġbehind": 1911,
      "ords": 1912,
      "ai": 1913,
      "Ġbeautiful": 1914,
      "Ġrain": 1915,
      "Ġlot": 1916,
      "ĠGeor": 1917,
      "Ġ&": 1918,
      "ones": 1919,
      "ĠMia": 1920,
      "owers": 1921,
      "pted": 1922,
      "Ġlocal": 1923,
      "Ġ2008": 1924,
      "Ġacross": 1925,
      "port": 1926,
      "Ġlevel": 1927,
      "aces": 1928,
      "Ġable": 1929,
      "ring": 1930,
      "Ġtot": 1931,
      "ruction": 1932,
      "illy": 1933,
      "oad": 1934,
      "Ġtell": 1935,
      "Ġauth": 1936,
      "Ġra": 1937,
      "ĠMich": 1938,
      "Ġclaim": 1939,
      "ĠDuring": 1940,
      "aper": 1941,
      "Yes": 1942,
      "Ġprote": 1943,
      "Ġsit": 1944,
      "ĠCount": 1945,
      "Ġ2009": 1946,
      "Ġwest": 1947,
      "Ġ2007": 1948,
      "Ġsurpr": 1949,
      "Ġplayer": 1950,
      "Ġquickly": 1951,
      "Ġadm": 1952,
      "Ġworked": 1953,
      "Ġreturned": 1954,
      "Ġlow": 1955,
      "Ġsongs": 1956,
      "osp": 1957,
      "Ġthanked": 1958,
      "Ġsafe": 1959,
      "Ġbra": 1960,
      "Ġ22": 1961,
      "Ġeast": 1962,
      "ĠRiver": 1963,
      "Ġpress": 1964,
      "val": 1965,
      "Ġpoint": 1966,
      "iting": 1967,
      "ĠEl": 1968,
      "Ġ23": 1969,
      "ices": 1970,
      "Ġorder": 1971,
      "ipp": 1972,
      "Ġdeb": 1973,
      "ford": 1974,
      "aul": 1975,
      "Ġlots": 1976,
      "Ġsou": 1977,
      "Ġcommun": 1978,
      "Ġsoc": 1979,
      "Ġversion": 1980,
      "ĠAm": 1981,
      "ĠEnglish": 1982,
      "Ġchang": 1983,
      "Ġgrow": 1984,
      "joy": 1985,
      "Ġord": 1986,
      "ĠThen": 1987,
      "Ġcompany": 1988,
      "Ġeas": 1989,
      "Ġpiec": 1990,
      "Ġ2011": 1991,
      "Ġwhite": 1992,
      "Ġbuilding": 1993,
      "ract": 1994,
      "Ġcor": 1995,
      "ering": 1996,
      "ĠX": 1997,
      "ĠChar": 1998,
      "Ġclose": 1999,
      "Ġothers": 2000,
      "ler": 2001,
      "omen": 2002,
      "cess": 2003,
      "ann": 2004,
      "Ġclean": 2005,
      "Ġblack": 2006,
      "Ġlaw": 2007,
      "ray": 2008,
      "Ġtem": 2009,
      "ery": 2010,
      "Ġposition": 2011,
      "Ġcomb": 2012,
      "aughed": 2013,
      "Ġlaughed": 2014,
      "oney": 2015,
      "Ġwritten": 2016,
      "resent": 2017,
      "Ġloud": 2018,
      "Ġadvent": 2019,
      "odd": 2020,
      "Ġmark": 2021,
      "Ġtrad": 2022,
      "rought": 2023,
      "Ġaff": 2024,
      "ĠCanad": 2025,
      "Ġfall": 2026,
      "Ġprof": 2027,
      "Ġforest": 2028,
      "ama": 2029,
      "Ġfish": 2030,
      "Ġflew": 2031,
      "Ġrad": 2032,
      "Ġpublished": 2033,
      "Ġ2012": 2034,
      "Ġdefe": 2035,
      "aur": 2036,
      "ief": 2037,
      "Ġcut": 2038,
      "Ġinflu": 2039,
      "ĠCity": 2040,
      "ĠLuc": 2041,
      "af": 2042,
      "Ġrefer": 2043,
      "Ġproduction": 2044,
      "ology": 2045,
      "oor": 2046,
      "Ġsol": 2047,
      "Ġcountry": 2048,
      "Ġcross": 2049,
      "ĠBatt": 2050,
      "aff": 2051,
      "Ġpret": 2052,
      "Ġenjoy": 2053,
      "Ġinvol": 2054,
      "ests": 2055,
      "Ġusing": 2056,
      "iced": 2057,
      "Ġfight": 2058,
      "yle": 2059,
      "ĠCent": 2060,
      "Ġtotal": 2061,
      "ĠAb": 2062,
      "Ġrecorded": 2063,
      "Ġter": 2064,
      "ention": 2065,
      "ampions": 2066,
      "iety": 2067,
      "ondon": 2068,
      "Ġgiven": 2069,
      "ison": 2070,
      "Ġdraw": 2071,
      "ĠPark": 2072,
      "Ġhelped": 2073,
      "Ġvict": 2074,
      "ĠCal": 2075,
      "sequ": 2076,
      "Ġsto": 2077,
      "Ġer": 2078,
      "Ġblue": 2079,
      "Ġfinished": 2080,
      "ĠLondon": 2081,
      "Ġour": 2082,
      "Ġproduced": 2083,
      "Ġcreat": 2084,
      "Ġcontrol": 2085,
      "ĠGener": 2086,
      "fic": 2087,
      "Ġ190": 2088,
      "Ġlik": 2089,
      "Ġpict": 2090,
      "Ġwatch": 2091,
      "Ġshowed": 2092,
      "Ġve": 2093,
      "ĠUniversity": 2094,
      "Ġparticular": 2095,
      "Ġfact": 2096,
      "Tim": 2097,
      "Ġten": 2098,
      "iness": 2099,
      "Ġstat": 2100,
      "levision": 2101,
      "Ġcirc": 2102,
      "oring": 2103,
      "oyal": 2104,
      "Ġlarg": 2105,
      "ĠNe": 2106,
      "Ġbed": 2107,
      "ĠBob": 2108,
      "As": 2109,
      "ges": 2110,
      "You": 2111,
      "Ġannoun": 2112,
      "dle": 2113,
      "Ġface": 2114,
      "Ġships": 2115,
      "craft": 2116,
      "Ġinclude": 2117,
      "Ġvoice": 2118,
      "Ġmiss": 2119,
      "ĠAng": 2120,
      "Ġreported": 2121,
      "ille": 2122,
      "ĠFin": 2123,
      "Ġdestroy": 2124,
      "Ġclub": 2125,
      "ensive": 2126,
      "Ġstated": 2127,
      "Ġhands": 2128,
      "ĠAir": 2129,
      "Ġlim": 2130,
      "Ġdoor": 2131,
      "Ġfre": 2132,
      "Ġenc": 2133,
      "Ġfail": 2134,
      "Ġfather": 2135,
      "Ġcry": 2136,
      "Ġbrought": 2137,
      "ĠHigh": 2138,
      "Ġisland": 2139,
      "Ġpretty": 2140,
      "Ġmilitary": 2141,
      "kay": 2142,
      "eth": 2143,
      "ĠDav": 2144,
      "ither": 2145,
      "Ġtimes": 2146,
      "Ġhurt": 2147,
      "Ġangry": 2148,
      "aren": 2149,
      "ĠCo": 2150,
      "ĠWith": 2151,
      "ought": 2152,
      "iter": 2153,
      "use": 2154,
      "Ġcommon": 2155,
      "ograph": 2156,
      "me": 2157,
      "Ġarm": 2158,
      "Ġdro": 2159,
      "Åĵ": 2160,
      "Ġgen": 2161,
      "ĠThat": 2162,
      "Ġpopular": 2163,
      "Ġwalked": 2164,
      "Ġ27": 2165,
      "Ġmother": 2166,
      "most": 2167,
      "Ġround": 2168,
      "ĠNor": 2169,
      "ably": 2170,
      "Ġprogram": 2171,
      "Ġdirect": 2172,
      "Ġwhe": 2173,
      "Ġval": 2174,
      "rent": 2175,
      "Ġ50": 2176,
      "ming": 2177,
      "echn": 2178,
      "Ġthink": 2179,
      "sp": 2180,
      "Ġbreak": 2181,
      "ald": 2182,
      "hest": 2183,
      "Ġreach": 2184,
      "itive": 2185,
      "ricane": 2186,
      "Ġheavy": 2187,
      "rest": 2188,
      "acked": 2189,
      "con": 2190,
      "iment": 2191,
      "ccording": 2192,
      "Ġhistory": 2193,
      "Ġintrod": 2194,
      "to": 2195,
      "Ġcapt": 2196,
      "ĠSu": 2197,
      "ising": 2198,
      "stand": 2199,
      "Ġremained": 2200,
      "Ġfeeling": 2201,
      "Ġ2006": 2202,
      "Ġpicked": 2203,
      "ying": 2204,
      "Ġforces": 2205,
      "Ġmeet": 2206,
      "ae": 2207,
      "ressed": 2208,
      "ration": 2209,
      "Ġwood": 2210,
      "Ġbrave": 2211,
      "Ġobs": 2212,
      "Ġauthor": 2213,
      "agon": 2214,
      "Ġseven": 2215,
      "Ġtowards": 2216,
      "Ġft": 2217,
      "Ġruns": 2218,
      "Ġlooking": 2219,
      "Ġcompet": 2220,
      "ĠThese": 2221,
      "Ġaircraft": 2222,
      "hel": 2223,
      "utes": 2224,
      "Ġfavor": 2225,
      "Ġcareer": 2226,
      "rie": 2227,
      "ooks": 2228,
      "Ġhit": 2229,
      "iding": 2230,
      "Ġ28": 2231,
      "Ġ26": 2232,
      "Ġtitle": 2233,
      "ĠAf": 2234,
      "Ġrepresent": 2235,
      "Ġeight": 2236,
      "Ġstore": 2237,
      "ploy": 2238,
      "aign": 2239,
      "Ġgrand": 2240,
      "Ġ189": 2241,
      "oft": 2242,
      "Ġturned": 2243,
      "itc": 2244,
      "Ġbattle": 2245,
      "Ġrace": 2246,
      "pper": 2247,
      "Ġ40": 2248,
      "ĠAustralia": 2249,
      "Ġsuff": 2250,
      "ĠCor": 2251,
      "ĠGeneral": 2252,
      "Ġeyes": 2253,
      "dom": 2254,
      "oke": 2255,
      "Ġcoun": 2256,
      "Ġdone": 2257,
      "Ġwall": 2258,
      "Ġexplore": 2259,
      "eal": 2260,
      "Ġnoise": 2261,
      "Ġservice": 2262,
      "ĠPe": 2263,
      "co": 2264,
      "reet": 2265,
      "Ġinstead": 2266,
      "Ġcharacters": 2267,
      "iles": 2268,
      "Ġdevelopment": 2269,
      "ĠSm": 2270,
      "Ġsuccessful": 2271,
      "Ġmonths": 2272,
      "ĠJames": 2273,
      "ĠEn": 2274,
      "com": 2275,
      "Ġmight": 2276,
      "ĠÃ¢": 2277,
      "ĠBo": 2278,
      "Ġappeared": 2279,
      "weet": 2280,
      "Ġdeveloped": 2281,
      "Ġcost": 2282,
      "Ġparty": 2283,
      "Ġbow": 2284,
      "ĠDo": 2285,
      "ĠGo": 2286,
      "Ġproduc": 2287,
      "Ġfront": 2288,
      "ument": 2289,
      "Ġ2013": 2290,
      "Ġreally": 2291,
      "Ġbirds": 2292,
      "ination": 2293,
      "ĠCounty": 2294,
      "Ġstopped": 2295,
      "Ġtaken": 2296,
      "Ben": 2297,
      "Ġcritic": 2298,
      "erous": 2299,
      "ucted": 2300,
      "ĠKe": 2301,
      "Ġarrived": 2302,
      "Ġsum": 2303,
      "An": 2304,
      "ana": 2305,
      "ĠSim": 2306,
      "Ġforce": 2307,
      "ression": 2308,
      "oph": 2309,
      "play": 2310,
      "Ġrunning": 2311,
      "Ġtow": 2312,
      "Ġfeet": 2313,
      "olly": 2314,
      "itted": 2315,
      "ĠJapanese": 2316,
      "Ġenough": 2317,
      "Ġdied": 2318,
      "Ġbit": 2319,
      "Ġtelevision": 2320,
      "Ġcreated": 2321,
      "ĠAlthough": 2322,
      "Ġtro": 2323,
      "Ġson": 2324,
      "Ġsat": 2325,
      "Ġyell": 2326,
      "Ġpra": 2327,
      "Ġboat": 2328,
      "Ġcoll": 2329,
      "ampionship": 2330,
      "lect": 2331,
      "ption": 2332,
      "Ġproble": 2333,
      "ummy": 2334,
      "Ġshiny": 2335,
      "Ġsignific": 2336,
      "Ġtour": 2337,
      "ĠRep": 2338,
      "key": 2339,
      "Ġslow": 2340,
      "Ġareas": 2341,
      "Ġvol": 2342,
      "Let": 2343,
      "ĠWhile": 2344,
      "ĠSw": 2345,
      "ublic": 2346,
      "itch": 2347,
      "ĠComp": 2348,
      "idence": 2349,
      "eder": 2350,
      "Ġkilled": 2351,
      "Ġlisten": 2352,
      "Ġmix": 2353,
      "Ġstri": 2354,
      "Ġsuper": 2355,
      "Ġstation": 2356,
      "Ġeventually": 2357,
      "Ġking": 2358,
      "bor": 2359,
      "Ġserved": 2360,
      "Ġdark": 2361,
      "ĠEx": 2362,
      "Ġearl": 2363,
      "ĠEast": 2364,
      "Ġintern": 2365,
      "Ġmat": 2366,
      "Ġtouch": 2367,
      "rog": 2368,
      "Ġrelations": 2369,
      "ival": 2370,
      "ĠArmy": 2371,
      "Ġmess": 2372,
      "ases": 2373,
      "Ġnational": 2374,
      "ency": 2375,
      "Ġeffect": 2376,
      "Ġofficial": 2377,
      "No": 2378,
      "ĠSec": 2379,
      "Ġhistor": 2380,
      "Ġremember": 2381,
      "mb": 2382,
      "Ġvarious": 2383,
      "Ġesc": 2384,
      "alt": 2385,
      "Ġtreat": 2386,
      "Ġbegin": 2387,
      "Ġwalking": 2388,
      "odes": 2389,
      "Ġnoted": 2390,
      "ĠState": 2391,
      "Ġbody": 2392,
      "Ġaver": 2393,
      "Ġimpro": 2394,
      "Ġfree": 2395,
      "Ġdecl": 2396,
      "ĠTw": 2397,
      "umb": 2398,
      "Ġmodern": 2399,
      "Ġsometimes": 2400,
      "imately": 2401,
      "Ġthroughout": 2402,
      "ertain": 2403,
      "Ġcampaign": 2404,
      "Ġcomplete": 2405,
      "Ġmiles": 2406,
      "Ġbase": 2407,
      "ows": 2408,
      "Ġprim": 2409,
      "Ġrespect": 2410,
      "more": 2411,
      "Ġnon": 2412,
      "omp": 2413,
      "Ġwatched": 2414,
      "Ġmm": 2415,
      "reg": 2416,
      "aval": 2417,
      "Ġ29": 2418,
      "ĠAmerica": 2419,
      "ĠEar": 2420,
      "iers": 2421,
      "Ġ-": 2422,
      "read": 2423,
      "arents": 2424,
      "Ġwond": 2425,
      "Ġple": 2426,
      "ization": 2427,
      "Ġpract": 2428,
      "Ġtechn": 2429,
      "anch": 2430,
      "ĠIsland": 2431,
      "head": 2432,
      "asing": 2433,
      "ĠPres": 2434,
      "Ġtropical": 2435,
      "ĠGeorge": 2436,
      "ĠRoad": 2437,
      "Ġplayers": 2438,
      "Ġneeded": 2439,
      "ocks": 2440,
      "Ġce": 2441,
      "Ġperformance": 2442,
      "ogn": 2443,
      "Ġalmost": 2444,
      "Ġmust": 2445,
      "ĠLucy": 2446,
      "ĠRober": 2447,
      "Ġannounced": 2448,
      "Ġstop": 2449,
      "Ġsand": 2450,
      "Ġpur": 2451,
      "Ġage": 2452,
      "ael": 2453,
      "Ġnor": 2454,
      "Ġnodd": 2455,
      "abor": 2456,
      "ze": 2457,
      "lished": 2458,
      "Ġ2005": 2459,
      "Ġaward": 2460,
      "That": 2461,
      "cast": 2462,
      "board": 2463,
      "Ġident": 2464,
      "cent": 2465,
      "Ġfem": 2466,
      "ett": 2467,
      "ĠRich": 2468,
      "Ġbecom": 2469,
      "leep": 2470,
      "What": 2471,
      "Ġrese": 2472,
      "Ġarg": 2473,
      "Ġsignificant": 2474,
      "ills": 2475,
      "Ġeveryone": 2476,
      "Ġdeep": 2477,
      "Ġagreed": 2478,
      "Ġwriting": 2479,
      "ĠMus": 2480,
      "ĠâĢĻ": 2481,
      "Ġwid": 2482,
      "Ġpolitical": 2483,
      "Ġhere": 2484,
      "Ġvill": 2485,
      "Ġnodded": 2486,
      "Ġseem": 2487,
      "ficult": 2488,
      "enced": 2489,
      "Ġtruck": 2490,
      "ivil": 2491,
      "Ġprocess": 2492,
      "âĤ¬â": 2493,
      "Ġhon": 2494,
      "iron": 2495,
      "Ġdifficult": 2496,
      "ĠGl": 2497,
      "field": 2498,
      "Ġlive": 2499,
      "Ġestablished": 2500,
      "Ġfac": 2501,
      "Ġcaused": 2502,
      "Ġmot": 2503,
      "men": 2504,
      "Ġcop": 2505,
      "epend": 2506,
      "int": 2507,
      "ask": 2508,
      "Ġsett": 2509,
      "Ġonce": 2510,
      "Ġadded": 2511,
      "Ġgeneral": 2512,
      "Ġstage": 2513,
      "rict": 2514,
      "ĠMon": 2515,
      "ĠPer": 2516,
      "Ġrev": 2517,
      "ĠStreet": 2518,
      "Ġcult": 2519,
      "gr": 2520,
      "Ġconn": 2521,
      "ken": 2522,
      "Ġpot": 2523,
      "Ġperformed": 2524,
      "ality": 2525,
      "Ġdiv": 2526,
      "ashing": 2527,
      "elling": 2528,
      "Ġsmile": 2529,
      "Ġtaking": 2530,
      "Ġparents": 2531,
      "Ġbroad": 2532,
      "ĠLeague": 2533,
      "Ġbom": 2534,
      "ĠAfric": 2535,
      "Ġstyle": 2536,
      "olution": 2537,
      "Ġstruct": 2538,
      "Ġroute": 2539,
      "Ġinterest": 2540,
      "Ġdress": 2541,
      "Ġflowers": 2542,
      "Ġrange": 2543,
      "Ġhear": 2544,
      "Ġhor": 2545,
      "ĠPhil": 2546,
      "ceed": 2547,
      "ift": 2548,
      "Ġentire": 2549,
      "Ġcand": 2550,
      "tel": 2551,
      "ĠAccording": 2552,
      "ĠRec": 2553,
      "ators": 2554,
      "Ġmember": 2555,
      "ĠMary": 2556,
      "Ġmi": 2557,
      "Ġcompleted": 2558,
      "Ġnovel": 2559,
      "ĠMor": 2560,
      "Ġpoints": 2561,
      "ĠHen": 2562,
      "Ġaud": 2563,
      "Ġpopulation": 2564,
      "itar": 2565,
      "Ġwear": 2566,
      "Ġactiv": 2567,
      "ivid": 2568,
      "Ġamaz": 2569,
      "ountain": 2570,
      "got": 2571,
      "Ġbooks": 2572,
      "ises": 2573,
      "Ġformed": 2574,
      "Ġcook": 2575,
      "ĠBill": 2576,
      "Ġcoming": 2577,
      "Ġ31": 2578,
      "Ġoccur": 2579,
      "Ġarch": 2580,
      "Ġcrew": 2581,
      "asure": 2582,
      "She": 2583,
      "aps": 2584,
      "Ġcoast": 2585,
      "ĠDad": 2586,
      "yd": 2587,
      "ecut": 2588,
      "ager": 2589,
      "Ġwomen": 2590,
      "ĠMed": 2591,
      "Ġwarm": 2592,
      "Ġtor": 2593,
      "ĠBlack": 2594,
      "ĠHouse": 2595,
      "rel": 2596,
      "Ġjour": 2597,
      "Ġlocated": 2598,
      "Ġslide": 2599,
      "Ġsoft": 2600,
      "Ġliving": 2601,
      "Ġnoticed": 2602,
      "Ġsite": 2603,
      "reek": 2604,
      "ĠRuss": 2605,
      "Ġhours": 2606,
      "fly": 2607,
      "work": 2608,
      "ĠGrand": 2609,
      "Ġfig": 2610,
      "ĠRoyal": 2611,
      "ila": 2612,
      "Ġsure": 2613,
      "Ġfeatures": 2614,
      "Ġmakes": 2615,
      "urb": 2616,
      "Ġhuman": 2617,
      "ĠIndian": 2618,
      "Ġsepar": 2619,
      "Ġriver": 2620,
      "aughter": 2621,
      "Ġ!": 2622,
      "rison": 2623,
      "ample": 2624,
      "eks": 2625,
      "Ġprinc": 2626,
      "aid": 2627,
      "ĠDivision": 2628,
      "Ġ2014": 2629,
      "ament": 2630,
      "At": 2631,
      "Ġcloser": 2632,
      "Ġloss": 2633,
      "overed": 2634,
      "ĠPol": 2635,
      "Ġpaper": 2636,
      "Ġworks": 2637,
      "Ġnec": 2638,
      "Ġ186": 2639,
      "ĠSer": 2640,
      "Ġhar": 2641,
      "Ġworking": 2642,
      "elled": 2643,
      "Ġproject": 2644,
      "Ġreplied": 2645,
      "Ħ¢": 2646,
      "âĤ¬âĦ¢": 2647,
      "ĠReg": 2648,
      "Ġtalk": 2649,
      "Ġconv": 2650,
      "Ġinsp": 2651,
      "king": 2652,
      "Ġsour": 2653,
      "ĠBro": 2654,
      "ĠFrance": 2655,
      "ude": 2656,
      "ĠAss": 2657,
      "Ġguns": 2658,
      "ais": 2659,
      "ĠSue": 2660,
      "Ġmoney": 2661,
      "ended": 2662,
      "ĠAustralian": 2663,
      "Ġcoin": 2664,
      "Ġvisit": 2665,
      "medi": 2666,
      "Ġmater": 2667,
      "Ġsurv": 2668,
      "Ġfloor": 2669,
      "Ġsym": 2670,
      "Ġhost": 2671,
      "Ġfinally": 2672,
      "Ġ188": 2673,
      "Thank": 2674,
      "go": 2675,
      "Ġspot": 2676,
      "Ġgrass": 2677,
      "Ġpu": 2678,
      "Ã¡": 2679,
      "Ġsees": 2680,
      "Ġpast": 2681,
      "arr": 2682,
      "mp": 2683,
      "Ġgreen": 2684,
      "igned": 2685,
      "ĠSan": 2686,
      "irt": 2687,
      "Ġgrab": 2688,
      "ĠSchool": 2689,
      "Ġallowed": 2690,
      "where": 2691,
      "Ġinj": 2692,
      "ades": 2693,
      "Ġrecogn": 2694,
      "Ġbright": 2695,
      "Ġcou": 2696,
      "Ġeither": 2697,
      "oted": 2698,
      "Ġrather": 2699,
      "Ġleast": 2700,
      "ĠSuddenly": 2701,
      "Ġ2004": 2702,
      "Ġice": 2703,
      "Ġplaced": 2704,
      "ĠRoman": 2705,
      "Ġjoined": 2706,
      "oe": 2707,
      "Ġdev": 2708,
      "ears": 2709,
      "conom": 2710,
      "uct": 2711,
      "Ġtravel": 2712,
      "ĠQu": 2713,
      "off": 2714,
      "Ġrab": 2715,
      "Ġleave": 2716,
      "bur": 2717,
      "ica": 2718,
      "ĠSome": 2719,
      "Ġaction": 2720,
      "omm": 2721,
      "Ġgoal": 2722,
      "Ġavail": 2723,
      "ĠJane": 2724,
      "Ġlearn": 2725,
      "Ġhappened": 2726,
      "Ġcase": 2727,
      "Ġassoci": 2728,
      "Ġengine": 2729,
      "ĠDavid": 2730,
      "bert": 2731,
      "Ġcyc": 2732,
      "istic": 2733,
      "Ġquest": 2734,
      "Ġthing": 2735,
      "Ġpassed": 2736,
      "Ġoriginally": 2737,
      "aught": 2738,
      "Ġpick": 2739,
      "Ġweeks": 2740,
      "Ġconstruction": 2741,
      "ĠMac": 2742,
      "ule": 2743,
      "Ġwife": 2744,
      "azine": 2745,
      "Ġprovided": 2746,
      "unch": 2747,
      "Ġindivid": 2748,
      "Ġtrees": 2749,
      "Ġattempt": 2750,
      "ĠRed": 2751,
      "Ġrelationship": 2752,
      "ĠDon": 2753,
      "Ġdamage": 2754,
      "Ġcomment": 2755,
      "cil": 2756,
      "ata": 2757,
      "room": 2758,
      "Ġlaugh": 2759,
      "Ġreve": 2760,
      "emy": 2761,
      "Ġhigher": 2762,
      "Ġdoing": 2763,
      "sel": 2764,
      "Ġsubsequ": 2765,
      "Ġokay": 2766,
      "ĠSqu": 2767,
      "Ġcal": 2768,
      "Ġrail": 2769,
      "Ġmer": 2770,
      "zz": 2771,
      "Ġoffice": 2772,
      "ĠPart": 2773,
      "pe": 2774,
      "Ġcatch": 2775,
      "ĠPaul": 2776,
      "Ġestim": 2777,
      "Ġspent": 2778,
      "Ġaverage": 2779,
      "We": 2780,
      "oes": 2781,
      "Ġcars": 2782,
      "Ġprot": 2783,
      "ĠLet": 2784,
      "Ġregion": 2785,
      "Ġborn": 2786,
      "ĠItal": 2787,
      "ki": 2788,
      "ico": 2789,
      "Ġjob": 2790,
      "for": 2791,
      "Ġinform": 2792,
      "Ġmorning": 2793,
      "Ġfif": 2794,
      "aby": 2795,
      "angu": 2796,
      "Ġdou": 2797,
      "teen": 2798,
      "Ġ500": 2799,
      "Ġpred": 2800,
      "Ġquar": 2801,
      "Ġfourth": 2802,
      "ped": 2803,
      "ĠJoe": 2804,
      "fect": 2805,
      "ending": 2806,
      "ĠJim": 2807,
      "bye": 2808,
      "ĠSch": 2809,
      "Ġdin": 2810,
      "Ġleading": 2811,
      "Ġfix": 2812,
      "Ġcake": 2813,
      "ius": 2814,
      "ino": 2815,
      "ointed": 2816,
      "antic": 2817,
      "Ġtail": 2818,
      "Ġspl": 2819,
      "Ġminutes": 2820,
      "iant": 2821,
      "Ġsex": 2822,
      "itting": 2823,
      "ugg": 2824,
      "Ġregular": 2825,
      "Ġhurricane": 2826,
      "ĠSpot": 2827,
      "ĠTo": 2828,
      "irth": 2829,
      "Ġcolor": 2830,
      "Ġmaterial": 2831,
      "ĠDan": 2832,
      "rac": 2833,
      "Ġunderstand": 2834,
      "chie": 2835,
      "Ġcool": 2836,
      "Ġreplaced": 2837,
      "Suddenly": 2838,
      "ĠIr": 2839,
      "Ġprofess": 2840,
      "ville": 2841,
      "Ġgenerally": 2842,
      "Ġready": 2843,
      "Ġchange": 2844,
      "Ġmass": 2845,
      "itchen": 2846,
      "Ġwhy": 2847,
      "Ġtradition": 2848,
      "Ġyellow": 2849,
      "Ġstars": 2850,
      "ope": 2851,
      "ĠIntern": 2852,
      "ĠCap": 2853,
      "Ġbelieved": 2854,
      "Ġhom": 2855,
      "ĠMad": 2856,
      "Ġindust": 2857,
      "rated": 2858,
      "ĠHam": 2859,
      "Ġbring": 2860,
      "ique": 2861,
      "ological": 2862,
      "Ġcastle": 2863,
      "iol": 2864,
      "Ġsouthern": 2865,
      "Ġherself": 2866,
      "Ġsea": 2867,
      "espite": 2868,
      "Ġsurf": 2869,
      "Ġclear": 2870,
      "Ġpay": 2871,
      "ĠMichael": 2872,
      "Ġchurch": 2873,
      "fall": 2874,
      "Ġexample": 2875,
      "Ġstick": 2876,
      "Ġsister": 2877,
      "mon": 2878,
      "ential": 2879,
      "Ġlonger": 2880,
      "Ġinvest": 2881,
      "ollowing": 2882,
      "anced": 2883,
      "iction": 2884,
      "Ġtest": 2885,
      "Ġcold": 2886,
      "adron": 2887,
      "Ġevents": 2888,
      "Ġcourse": 2889,
      "ashington": 2890,
      "sc": 2891,
      "Ġmult": 2892,
      "Ġ187": 2893,
      "Ġhair": 2894,
      "Ġscore": 2895,
      "Ġtroops": 2896,
      "Ġpen": 2897,
      "Ġeconom": 2898,
      "Ġyard": 2899,
      "Ġap": 2900,
      "Ġrul": 2901,
      "Ġbusiness": 2902,
      "artment": 2903,
      "Ġsaying": 2904,
      "Ġcurrent": 2905,
      "Ġcritics": 2906,
      "uel": 2907,
      "Ġearlier": 2908,
      "ĠDr": 2909,
      "wood": 2910,
      "Ġren": 2911,
      "Ġbutter": 2912,
      "Ġhous": 2913,
      "Ġleaves": 2914,
      "Ġfair": 2915,
      "Ġavailable": 2916,
      "ĠWashington": 2917,
      "Ġadventure": 2918,
      "Ġfavorite": 2919,
      "ength": 2920,
      "Ġarmy": 2921,
      "Ġanymore": 2922,
      "icated": 2923,
      "Ġwait": 2924,
      "Ġthreat": 2925,
      "Ġmph": 2926,
      "Ġfeatured": 2927,
      "Ġrabbit": 2928,
      "Ġfoc": 2929,
      "Ġelse": 2930,
      "Ġclosed": 2931,
      "Ġrealized": 2932,
      "Ġesp": 2933,
      "ĠPort": 2934,
      "ĠVir": 2935,
      "Ġresul": 2936,
      "Ġ2015": 2937,
      "Ġended": 2938,
      "ĠPeter": 2939,
      "ĠWil": 2940,
      "Ġscored": 2941,
      "Ġnet": 2942,
      "Ġgold": 2943,
      "ĠAg": 2944,
      "Ġcarried": 2945,
      "Ġkitchen": 2946,
      "ĠMy": 2947,
      "Ġ2000": 2948,
      "Her": 2949,
      "lex": 2950,
      "rian": 2951,
      "ume": 2952,
      "icy": 2953,
      "Ġpossible": 2954,
      "Ġnine": 2955,
      "Ġtall": 2956,
      "Ġvictory": 2957,
      "Ġwide": 2958,
      "ground": 2959,
      "Ġparticip": 2960,
      "Look": 2961,
      "Ġdesigned": 2962,
      "Ġbridge": 2963,
      "Ġaut": 2964,
      "Ġreb": 2965,
      "Ġscene": 2966,
      "Ġ35": 2967,
      "Ġcurious": 2968,
      "unk": 2969,
      "Ġabove": 2970,
      "anks": 2971,
      "ĠBattle": 2972,
      "Ġself": 2973,
      "ĠAct": 2974,
      "ĠHenry": 2975,
      "ĠRobert": 2976,
      "Anna": 2977,
      "tee": 2978,
      "Ġlargest": 2979,
      "Ġfootball": 2980,
      "ĠÂ°": 2981,
      "Ġgoodbye": 2982,
      "Ġdesp": 2983,
      "lt": 2984,
      "mi": 2985,
      "Ġhighway": 2986,
      "airs": 2987,
      "Ġswim": 2988,
      "Ġfund": 2989,
      "ĠAnt": 2990,
      "igg": 2991,
      "ago": 2992,
      "Ġpoor": 2993,
      "Ġbur": 2994,
      "ĠPresident": 2995,
      "west": 2996,
      "ĠGreat": 2997,
      "ĠThom": 2998,
      "Ġgrad": 2999,
      "Ġparticularly": 3000,
      "Ġlangu": 3001,
      "Ġlength": 3002,
      "Ġtable": 3003,
      "ĠAtl": 3004,
      "unny": 3005,
      "Ġpercent": 3006,
      "ĠBrown": 3007,
      "Ġenjoyed": 3008,
      "Ġdisapp": 3009,
      "Ġsequ": 3010,
      "het": 3011,
      "Ġrespons": 3012,
      "Ġspeed": 3013,
      "ĠAngel": 3014,
      "ander": 3015,
      "unt": 3016,
      "icket": 3017,
      "Ġvoc": 3018,
      "Ġdeterm": 3019,
      "Ġsweet": 3020,
      "Ġtraining": 3021,
      "Ġalone": 3022,
      "atural": 3023,
      "outed": 3024,
      "ecially": 3025,
      "ification": 3026,
      "hester": 3027,
      "ript": 3028,
      "Ġill": 3029,
      "Ġrelig": 3030,
      "stit": 3031,
      "Ġproper": 3032,
      "Ġinvolved": 3033,
      "ĠSarah": 3034,
      "ushed": 3035,
      "Ġincreased": 3036,
      "BC": 3037,
      "ays": 3038,
      "Ġopening": 3039,
      "ĠMr": 3040,
      "Ġemploy": 3041,
      "lin": 3042,
      "Ġkey": 3043,
      "ĠWhite": 3044,
      "Ġinitially": 3045,
      "ĠLou": 3046,
      "Ġexist": 3047,
      "oint": 3048,
      "Ġlack": 3049,
      "tell": 3050,
      "ĠCompany": 3051,
      "Ġnorthern": 3052,
      "rang": 3053,
      "So": 3054,
      "Ġpers": 3055,
      "ĠSen": 3056,
      "ky": 3057,
      "Ġ2003": 3058,
      "Ġbroken": 3059,
      "Ġclimb": 3060,
      "ateg": 3061,
      "Ġespecially": 3062,
      "iation": 3063,
      "ĠStar": 3064,
      "Ġpresident": 3065,
      "ĠSl": 3066,
      "ffic": 3067,
      "Ġnomin": 3068,
      "Ġsil": 3069,
      "Ġdaughter": 3070,
      "Ġordered": 3071,
      "rey": 3072,
      "Ġshot": 3073,
      "Ġcommer": 3074,
      "Ġcontrib": 3075,
      "Ġindepend": 3076,
      "Ġsnow": 3077,
      "asion": 3078,
      "ipped": 3079,
      "sw": 3080,
      "icle": 3081,
      "ĠFirst": 3082,
      "Ġsele": 3083,
      "inist": 3084,
      "lement": 3085,
      "ĠVirgin": 3086,
      "pts": 3087,
      "ĠHall": 3088,
      "ĠPal": 3089,
      "Ġanything": 3090,
      "Ġsleep": 3091,
      "ucky": 3092,
      "Ġhighest": 3093,
      "Sara": 3094,
      "Ġinn": 3095,
      "Can": 3096,
      "ĠColle": 3097,
      "ference": 3098,
      "Ġpraised": 3099,
      "Ġpriv": 3100,
      "Ġtrying": 3101,
      "ĠRichard": 3102,
      "ĠQue": 3103,
      "ĠRepublic": 3104,
      "Ġwords": 3105,
      "ready": 3106,
      "uture": 3107,
      "aled": 3108,
      "Ġimmedi": 3109,
      "Ġremo": 3110,
      "amer": 3111,
      "ha": 3112,
      "Ġregard": 3113,
      "mar": 3114,
      "nal": 3115,
      "Ġforced": 3116,
      "Ġcarry": 3117,
      "Ġitself": 3118,
      "ĠKingdom": 3119,
      "Ġstudy": 3120,
      "la": 3121,
      "Ġbill": 3122,
      "Ġphys": 3123,
      "Ġlay": 3124,
      "Ġunits": 3125,
      "Ġfunny": 3126,
      "Ġshows": 3127,
      "acy": 3128,
      "ĠJe": 3129,
      "Ġcourt": 3130,
      "Ġmarket": 3131,
      "Ġkill": 3132,
      "ĠMex": 3133,
      "Ġshar": 3134,
      "Ġglad": 3135,
      "Ġblocks": 3136,
      "ĠMcC": 3137,
      "Ġroll": 3138,
      "Ġcentral": 3139,
      "ecutive": 3140,
      "ĠMommy": 3141,
      "yr": 3142,
      "Ġlooks": 3143,
      "Don": 3144,
      "ula": 3145,
      "ĠLa": 3146,
      "Ġneigh": 3147,
      "iber": 3148,
      "isc": 3149,
      "ĠCour": 3150,
      "ĠNavy": 3151,
      "Ġtrain": 3152,
      "Ġunc": 3153,
      "ilities": 3154,
      "Ġlower": 3155,
      "Ġflower": 3156,
      "erved": 3157,
      "Ġappearance": 3158,
      "acher": 3159,
      "ĠCanada": 3160,
      "Ġeduc": 3161,
      "nes": 3162,
      "heast": 3163,
      "Ġalready": 3164,
      "Ġweak": 3165,
      "Ġ2001": 3166,
      "Ġbeg": 3167,
      "ston": 3168,
      "Ġachie": 3169,
      "Ġdang": 3170,
      "Ġwinds": 3171,
      "Ġsigned": 3172,
      "imin": 3173,
      "ĠChurch": 3174,
      "Ġhealth": 3175,
      "Ġchart": 3176,
      "Ġdirector": 3177,
      "useum": 3178,
      "Ġjumped": 3179,
      "Ġdance": 3180,
      "Ġmoment": 3181,
      "Ġbroke": 3182,
      "oom": 3183,
      "ship": 3184,
      "ĠPlay": 3185,
      "rem": 3186,
      "ĠSing": 3187,
      "ĠMid": 3188,
      "onst": 3189,
      "lus": 3190,
      "Ġsecret": 3191,
      "Ġwrong": 3192,
      "Ġelements": 3193,
      "ios": 3194,
      "Ġpicture": 3195,
      "Ġgrabbed": 3196,
      "ĠDep": 3197,
      "enes": 3198,
      "Ġ185": 3199,
      "ĠEuropean": 3200,
      "ĠGame": 3201,
      "Ġdirected": 3202,
      "Ġrequired": 3203,
      "Ġsocial": 3204,
      "erful": 3205,
      "zy": 3206,
      "Ġsize": 3207,
      "Ġthin": 3208,
      "cean": 3209,
      "alion": 3210,
      "Ġflood": 3211,
      "Ġpolice": 3212,
      "Ġtakes": 3213,
      "Ġwoman": 3214,
      "Ġforward": 3215,
      "Ġbirth": 3216,
      "ĠChristian": 3217,
      "Ġsuggested": 3218,
      "Ġdropped": 3219,
      "ĠVal": 3220,
      "Ġpieces": 3221,
      "ĠCup": 3222,
      "Ġnearby": 3223,
      "Ġperfect": 3224,
      "iforn": 3225,
      "Ġkids": 3226,
      "pping": 3227,
      "hem": 3228,
      "ĠThomas": 3229,
      "Ġate": 3230,
      "Ġver": 3231,
      "Ġfilled": 3232,
      "Ġphot": 3233,
      "ĠÃ": 3234,
      "Ġmach": 3235,
      "ĠNY": 3236,
      "arily": 3237,
      "iling": 3238,
      "rab": 3239,
      "Ġ2002": 3240,
      "ĠChampionship": 3241,
      "lebr": 3242,
      "ĠOther": 3243,
      "Ġaccording": 3244,
      "ĠBel": 3245,
      "Ġbuy": 3246,
      "Ġprevent": 3247,
      "Ġparts": 3248,
      "Ġsurprise": 3249,
      "hib": 3250,
      "Ġintroduced": 3251,
      "St": 3252,
      "ĠCaliforn": 3253,
      "Ġwished": 3254,
      "usp": 3255,
      "Ġfort": 3256,
      "antry": 3257,
      "ĠBer": 3258,
      "Ġlab": 3259,
      "Ġflying": 3260,
      "ror": 3261,
      "iff": 3262,
      "Ġ60": 3263,
      "Ġstories": 3264,
      "Ġpreviously": 3265,
      "Ġbag": 3266,
      "ĠWhat": 3267,
      "uction": 3268,
      "Ġbi": 3269,
      "Ġbeginning": 3270,
      "ĠBest": 3271,
      "Ġstreng": 3272,
      "Ġhole": 3273,
      "Ġdespite": 3274,
      "Ġgetting": 3275,
      "Ġheart": 3276,
      "Ġsomeone": 3277,
      "Ġevidence": 3278,
      "Ġgroups": 3279,
      "Ġfailed": 3280,
      "Ġtired": 3281,
      "Ġpositive": 3282,
      "Ġcommerc": 3283,
      "ĠJust": 3284,
      "Ġviol": 3285,
      "ospital": 3286,
      "Ġinterview": 3287,
      "ibility": 3288,
      "ĠEveryone": 3289,
      "Ġdisp": 3290,
      "Ġdi": 3291,
      "kn": 3292,
      "Ġcompl": 3293,
      "Ġlady": 3294,
      "ĠÂ£": 3295,
      "leg": 3296,
      "Ġpond": 3297,
      "ĠMark": 3298,
      "osition": 3299,
      "Ġtower": 3300,
      "ĠCalifornia": 3301,
      "aded": 3302,
      "Ġmagazine": 3303,
      "Ġfuture": 3304,
      "Ġ45": 3305,
      "ability": 3306,
      "Ġcenter": 3307,
      "ĠTwo": 3308,
      "ider": 3309,
      "fort": 3310,
      "Ġdestroyed": 3311,
      "Ġboard": 3312,
      "oid": 3313,
      "Ġtas": 3314,
      "ĠMag": 3315,
      "Ġcann": 3316,
      "asc": 3317,
      "Ġsection": 3318,
      "Ġabs": 3319,
      "Ġassist": 3320,
      "nel": 3321,
      "othes": 3322,
      "Ġveh": 3323,
      "ĠVict": 3324,
      "Ġyummy": 3325,
      "ĠInternational": 3326,
      "Ġstates": 3327,
      "Ġleaving": 3328,
      "Ġcell": 3329,
      "aked": 3330,
      "ferred": 3331,
      "Ġpiece": 3332,
      "can": 3333,
      "Ġpet": 3334,
      "Ġprob": 3335,
      "Ġ1990": 3336,
      "Ġwhole": 3337,
      "Ġcivil": 3338,
      "ĠCr": 3339,
      "amb": 3340,
      "'re": 3341,
      "uation": 3342,
      "aint": 3343,
      "Jo": 3344,
      "ĠUnion": 3345,
      "Ġfrequ": 3346,
      "ĠTV": 3347,
      "ittee": 3348,
      "Ġdiscuss": 3349,
      "Ġfemale": 3350,
      "osing": 3351,
      "Ġhill": 3352,
      "Ġwhom": 3353,
      "Ġfriendly": 3354,
      "Ġder": 3355,
      "ĠDu": 3356,
      "selves": 3357,
      "igan": 3358,
      "ĠRh": 3359,
      "ĠFrank": 3360,
      "ppy": 3361,
      "icles": 3362,
      "Ġoil": 3363,
      "Ġpil": 3364,
      "Ġstudio": 3365,
      "apt": 3366,
      "ĠGold": 3367,
      "Ġradio": 3368,
      "Ġbott": 3369,
      "Ġspace": 3370,
      "Ġworry": 3371,
      "atory": 3372,
      "lic": 3373,
      "Ġwhose": 3374,
      "cher": 3375,
      "acks": 3376,
      "Ġdefeated": 3377,
      "Ġplant": 3378,
      "Ġaccess": 3379,
      "ĠBritain": 3380,
      "Ġterrit": 3381,
      "Ġlines": 3382,
      "anded": 3383,
      "Ġeastern": 3384,
      "ĠAlex": 3385,
      "Ġtoday": 3386,
      "yric": 3387,
      "ĠDespite": 3388,
      "ĠNow": 3389,
      "Ġhat": 3390,
      "Ġfinish": 3391,
      "ĠMart": 3392,
      "ania": 3393,
      "ĠGovern": 3394,
      "Ġusually": 3395,
      "atin": 3396,
      "Ġhot": 3397,
      "Ġdiscovered": 3398,
      "Ġadditional": 3399,
      "Ġshouted": 3400,
      "Ġpressure": 3401,
      "Ġcred": 3402,
      "Ġcorn": 3403,
      "Ġmouth": 3404,
      "ership": 3405,
      "Ġemb": 3406,
      "Ġchanged": 3407,
      "Ġissue": 3408,
      "Ġremembered": 3409,
      "Ġstayed": 3410,
      "Ġcelebr": 3411,
      "ida": 3412,
      "ĠScott": 3413,
      "Ġestimated": 3414,
      "set": 3415,
      "Ġwestern": 3416,
      "ĠGod": 3417,
      "Ġrecording": 3418,
      "Ġshoot": 3419,
      "ĠIndia": 3420,
      "Ġcommunity": 3421,
      "asons": 3422,
      "ĠAssoci": 3423,
      "ĠDay": 3424,
      "Ġremaining": 3425,
      "Ġgone": 3426,
      "ĠOly": 3427,
      "irty": 3428,
      "Ġcommission": 3429,
      "aker": 3430,
      "Ġpul": 3431,
      "ully": 3432,
      "ocked": 3433,
      "ĠCharles": 3434,
      "ites": 3435,
      "anish": 3436,
      "Ġproduct": 3437,
      "olf": 3438,
      "Ġthemselves": 3439,
      "Ġdecision": 3440,
      "Ġmixed": 3441,
      "Ġ36": 3442,
      "Ġremain": 3443,
      "Ġinternational": 3444,
      "orial": 3445,
      "ĠMusic": 3446,
      "ĠOlymp": 3447,
      "acing": 3448,
      "Ġswing": 3449,
      "Ġclaimed": 3450,
      "Ġacqu": 3451,
      "Ġwinning": 3452,
      "Ġoccup": 3453,
      "ga": 3454,
      "ulf": 3455,
      "Ġdream": 3456,
      "ining": 3457,
      "Ġcried": 3458,
      "jects": 3459,
      "ĠBay": 3460,
      "Ġdeal": 3461,
      "Ġener": 3462,
      "Ġ80": 3463,
      "Ġsummer": 3464,
      "Ġanal": 3465,
      "Ġfighting": 3466,
      "From": 3467,
      "inct": 3468,
      "Ġaccident": 3469,
      "ka": 3470,
      "Ġentered": 3471,
      "ĠRes": 3472,
      "Ġvillage": 3473,
      "ulated": 3474,
      "Ġlarger": 3475,
      "Ġstaff": 3476,
      "Ġliter": 3477,
      "ĠSmith": 3478,
      "John": 3479,
      "ĠEv": 3480,
      "ĠVirginia": 3481,
      "ĠWestern": 3482,
      "Ġexcept": 3483,
      "Ġmeant": 3484,
      "Ġreviews": 3485,
      "Ġsurround": 3486,
      "Ġepisodes": 3487,
      "Ġ1980": 3488,
      "liam": 3489,
      "Ġproposed": 3490,
      "ĠIf": 3491,
      "Ġeverything": 3492,
      "Ġpath": 3493,
      "Ġwindow": 3494,
      "Ġdead": 3495,
      "Ġapprox": 3496,
      "Ġreport": 3497,
      "sy": 3498,
      "igade": 3499,
      "ires": 3500,
      "Ġwild": 3501,
      "ĠMal": 3502,
      "Ġshared": 3503,
      "ĠUK": 3504,
      "Ġscreen": 3505,
      "Ġsal": 3506,
      "ĠHill": 3507,
      "using": 3508,
      "Ġcycl": 3509,
      "Ġflag": 3510,
      "Ġbrown": 3511,
      "Ġdelic": 3512,
      "ello": 3513,
      "ether": 3514,
      "uge": 3515,
      "Ġcontract": 3516,
      "Ġlatter": 3517,
      "Ġprovide": 3518,
      "sey": 3519,
      "Ġtur": 3520,
      "Wow": 3521,
      "Ġspecific": 3522,
      "Ġminor": 3523,
      "arn": 3524,
      "Ġanti": 3525,
      "Ġ?": 3526,
      "Ġstudents": 3527,
      "Ġbecoming": 3528,
      "Ġcreate": 3529,
      "ĠCong": 3530,
      "Ġexam": 3531,
      "Ġnumbers": 3532,
      "liament": 3533,
      "Ġenv": 3534,
      "Ġmarried": 3535,
      "ĠTimes": 3536,
      "Ġexplained": 3537,
      "Ġleague": 3538,
      "Ġ32": 3539,
      "Ġmoving": 3540,
      "Ġsurface": 3541,
      "Ġmouse": 3542,
      "ession": 3543,
      "idents": 3544,
      "itz": 3545,
      "uses": 3546,
      "aries": 3547,
      "Ġlanguage": 3548,
      "Ġden": 3549,
      "Ġwrite": 3550,
      "ĠAc": 3551,
      "Ġanc": 3552,
      "ĠPat": 3553,
      "uing": 3554,
      "Ġcertain": 3555,
      "ari": 3556,
      "Ġwants": 3557,
      "Ġprison": 3558,
      "Ġhorse": 3559,
      "ĠGreen": 3560,
      "Ġletter": 3561,
      "Ġsurprised": 3562,
      "ĠKen": 3563,
      "Ġ1970": 3564,
      "Ġbrie": 3565,
      "Ġlimited": 3566,
      "Ġsusp": 3567,
      "Ġwaved": 3568,
      "erve": 3569,
      "Ġintended": 3570,
      "isl": 3571,
      "ands": 3572,
      "Timmy": 3573,
      "change": 3574,
      "Ġjud": 3575,
      "Ġsoldiers": 3576,
      "Ġlyric": 3577,
      "ĠMill": 3578,
      "ĠForce": 3579,
      "Ġonto": 3580,
      "Ġ1960": 3581,
      "porary": 3582,
      "ĠAward": 3583,
      "Ġpeace": 3584,
      "han": 3585,
      "ĠBra": 3586,
      "Ġwet": 3587,
      "Ġmusical": 3588,
      "Ġconsider": 3589,
      "Mommy": 3590,
      "Ġlikes": 3591,
      "ĠCourt": 3592,
      "ging": 3593,
      "Ġtight": 3594,
      "Ġtext": 3595,
      "Ġexperience": 3596,
      "Ġmov": 3597,
      "Ġdate": 3598,
      "ĠBur": 3599,
      "ĠSuper": 3600,
      "Ġnorm": 3601,
      "ructed": 3602,
      "ĠRob": 3603,
      "Ġcolors": 3604,
      "Ġawarded": 3605,
      "Ġdisplay": 3606,
      "Ġprior": 3607,
      "Ġwriter": 3608,
      "Ġguitar": 3609,
      "ĠOt": 3610,
      "Ġappointed": 3611,
      "Ġweap": 3612,
      "Ġ70": 3613,
      "Ġbunny": 3614,
      "za": 3615,
      "Ġnearly": 3616,
      "arent": 3617,
      "ĠGermany": 3618,
      "Ġbelieve": 3619,
      "ĠMil": 3620,
      "inent": 3621,
      "ena": 3622,
      "This": 3623,
      "ĠCollege": 3624,
      "kin": 3625,
      "Ġfru": 3626,
      "ĠChic": 3627,
      "Al": 3628,
      "ĠLake": 3629,
      "Ġcommercial": 3630,
      "Ġemer": 3631,
      "ĠPac": 3632,
      "Ġrap": 3633,
      "Ġ75": 3634,
      "bour": 3635,
      "ole": 3636,
      "Ġlake": 3637,
      "ĠMer": 3638,
      "Ġfleet": 3639,
      "Ġmum": 3640,
      "Ġcloud": 3641,
      "ĠVictor": 3642,
      "eddy": 3643,
      "ĠJer": 3644,
      "ĠOld": 3645,
      "Ġchanges": 3646,
      "Ġincreasing": 3647,
      "Ġlesson": 3648,
      "ĠSou": 3649,
      "Ġsmaller": 3650,
      "ĠCoun": 3651,
      "Ġtype": 3652,
      "Ġdebut": 3653,
      "ils": 3654,
      "berg": 3655,
      "ĠStud": 3656,
      "Ġmiddle": 3657,
      "Ġhung": 3658,
      "Ġoperations": 3659,
      "Ġquarter": 3660,
      "ĠKn": 3661,
      "ĠMiss": 3662,
      "Ġoffered": 3663,
      "Ġcarefully": 3664,
      "Ġinvestig": 3665,
      "Ġ300": 3666,
      "Ġteams": 3667,
      "de": 3668,
      "Ġdetail": 3669,
      "Ġbaby": 3670,
      "ĠJen": 3671,
      "ĠRock": 3672,
      "alled": 3673,
      "II": 3674,
      "ĠMur": 3675,
      "Ġask": 3676,
      "Ġyards": 3677,
      "andon": 3678,
      "uce": 3679,
      "ĠIm": 3680,
      "aves": 3681,
      "Ġhappily": 3682,
      "Ġword": 3683,
      "Ġow": 3684,
      "Ġdoc": 3685,
      "AA": 3686,
      "Ġshap": 3687,
      "ĠTer": 3688,
      "aches": 3689,
      "Ġbuildings": 3690,
      "ado": 3691,
      "Ġremains": 3692,
      "Ġtar": 3693,
      "icks": 3694,
      "onse": 3695,
      "atives": 3696,
      "Ġarrang": 3697,
      "NA": 3698,
      "Ġpersonal": 3699,
      "Ġoverall": 3700,
      "Ġtrib": 3701,
      "enth": 3702,
      "Ġbeach": 3703,
      "ĠJackson": 3704,
      "Ġfarm": 3705,
      "rd": 3706,
      "Ġdamaged": 3707,
      "Ġproblems": 3708,
      "Ġbomb": 3709,
      "come": 3710,
      "agement": 3711,
      "ĠSpanish": 3712,
      "ĠRoute": 3713,
      "iest": 3714,
      "Ġdivision": 3715,
      "Ġlion": 3716,
      "Ġbutterfly": 3717,
      "ĠSoc": 3718,
      "ĠWood": 3719,
      "osaur": 3720,
      "Ġtemper": 3721,
      "ĠAtlantic": 3722,
      "reater": 3723,
      "iser": 3724,
      "atively": 3725,
      "Ġchall": 3726,
      "Ġturns": 3727,
      "Ġtons": 3728,
      "Ġnature": 3729,
      "vey": 3730,
      "Ġplanned": 3731,
      "ĠOver": 3732,
      "Ġchair": 3733,
      "iring": 3734,
      "ĠCarol": 3735,
      "Ġlaun": 3736,
      "ĠTheir": 3737,
      "Ġinfluence": 3738,
      "Ġnatural": 3739,
      "Ġeffects": 3740,
      "Ġstructure": 3741,
      "Sam": 3742,
      "hood": 3743,
      "astic": 3744,
      "Ġscient": 3745,
      "Ġrare": 3746,
      "inese": 3747,
      "omer": 3748,
      "fl": 3749,
      "Ġfrog": 3750,
      "iral": 3751,
      "Ġ1999": 3752,
      "ĠLouis": 3753,
      "ods": 3754,
      "ĠChicago": 3755,
      "Ġcru": 3756,
      "Ġcollect": 3757,
      "Ġelection": 3758,
      "aging": 3759,
      "Ġtracks": 3760,
      "Ġhopped": 3761,
      "Ġmeeting": 3762,
      "Ġbreed": 3763,
      "Ġyet": 3764,
      "tr": 3765,
      "Ġsupported": 3766,
      "olic": 3767,
      "ĠLos": 3768,
      "Ġ33": 3769,
      "Ġthrow": 3770,
      "Ġheav": 3771,
      "asy": 3772,
      "Ġforgot": 3773,
      "Ġimm": 3774,
      "Ġowner": 3775,
      "ĠBilly": 3776,
      "ĠIts": 3777,
      "ĠFlor": 3778,
      "Ġtrou": 3779,
      "ĠTex": 3780,
      "Ġestablish": 3781,
      "enty": 3782,
      "Ġwonderful": 3783,
      "Ġaw": 3784,
      "etic": 3785,
      "uffy": 3786,
      "Ġcomes": 3787,
      "Ġintens": 3788,
      "Ġrelated": 3789,
      "Ġcovered": 3790,
      "ĠFranc": 3791,
      "Ġresearch": 3792,
      "Ġapproximately": 3793,
      "ĠChinese": 3794,
      "aisy": 3795,
      "Ġpurch": 3796,
      "cepted": 3797,
      "tained": 3798,
      "Ġbug": 3799,
      "Ġnames": 3800,
      "Ġshell": 3801,
      "ĠPacific": 3802,
      "Ġpictures": 3803,
      "Ġconclud": 3804,
      "Ġkil": 3805,
      "Ġcontr": 3806,
      "ĠAssociation": 3807,
      "sen": 3808,
      "lands": 3809,
      "ĠScot": 3810,
      "uit": 3811,
      "Ġelectric": 3812,
      "imum": 3813,
      "uter": 3814,
      "Ġride": 3815,
      "ĠEll": 3816,
      "Ġmostly": 3817,
      "Ġcopies": 3818,
      "Ġdeg": 3819,
      "Ġsearch": 3820,
      "Ġresponse": 3821,
      "ĠMet": 3822,
      "ĠAnn": 3823,
      "Ġanimal": 3824,
      "ixt": 3825,
      "Ġtax": 3826,
      "Ġcomplex": 3827,
      "Ġcaught": 3828,
      "Ġpaint": 3829,
      "ĠManc": 3830,
      "Ġobject": 3831,
      "ĠCast": 3832,
      "tered": 3833,
      "astern": 3834,
      "rial": 3835,
      "Ġofficers": 3836,
      "Ġraised": 3837,
      "Ġasks": 3838,
      "Ġfilms": 3839,
      "ket": 3840,
      "semb": 3841,
      "itor": 3842,
      "Ġimmediately": 3843,
      "Ġbranch": 3844,
      "Ġdry": 3845,
      "ancy": 3846,
      "ĠSal": 3847,
      "Ġcompared": 3848,
      "Ġsales": 3849,
      "Ġcountries": 3850,
      "Ġprotect": 3851,
      "ĠCanadian": 3852,
      "Ġansw": 3853,
      "Ġenergy": 3854,
      "ĠAdm": 3855,
      "adium": 3856,
      "Ġranked": 3857,
      "During": 3858,
      "Ġdiss": 3859,
      "Ġwasn": 3860,
      "ucle": 3861,
      "Ġcompan": 3862,
      "ams": 3863,
      "Ġproblem": 3864,
      "ien": 3865,
      "ĠMont": 3866,
      "ĠFle": 3867,
      "Ġfeature": 3868,
      "Ġthus": 3869,
      "ĠBenny": 3870,
      "Ġquestion": 3871,
      "ÃŃ": 3872,
      "Ġmeans": 3873,
      "Ġsud": 3874,
      "Ġmultip": 3875,
      "ĠPri": 3876,
      "Ġdrum": 3877,
      "Ġslowly": 3878,
      "ij": 3879,
      "Ġburn": 3880,
      "Ġpink": 3881,
      "Ġmatter": 3882,
      "Ġcho": 3883,
      "ucks": 3884,
      "Ġcaptured": 3885,
      "umn": 3886,
      "Ġincrease": 3887,
      "Ġpig": 3888,
      "Ġgiving": 3889,
      "cer": 3890,
      "Ġdram": 3891,
      "Ġbelong": 3892,
      "oose": 3893,
      "vin": 3894,
      "itation": 3895,
      "Ġcere": 3896,
      "ĠSally": 3897,
      "Ġlikely": 3898,
      "Ġmission": 3899,
      "Ġincludes": 3900,
      "Ġissued": 3901,
      "Ġimprove": 3902,
      "Ġult": 3903,
      "Ġarms": 3904,
      "Ġdistrib": 3905,
      "Ġdig": 3906,
      "Ġdinner": 3907,
      "Ġprobably": 3908,
      "Ġtun": 3909,
      "Ġmind": 3910,
      "ĠTown": 3911,
      "ighter": 3912,
      "Ġprec": 3913,
      "Ġflight": 3914,
      "Ġfifth": 3915,
      "Ġclothes": 3916,
      "gl": 3917,
      "Ġpowerful": 3918,
      "Ġplease": 3919,
      "Ġcause": 3920,
      "Ġpair": 3921,
      "Ġuns": 3922,
      "Ġbroadcast": 3923,
      "Ġwithd": 3924,
      "Ġtrade": 3925,
      "Ġthank": 3926,
      "Ġspread": 3927,
      "ension": 3928,
      "Ġhouses": 3929,
      "Ġcm": 3930,
      "Ġ184": 3931,
      "ĠChina": 3932,
      "gar": 3933,
      "rot": 3934,
      "Ġju": 3935,
      "Ġextended": 3936,
      "Ġindic": 3937,
      "Ġfans": 3938,
      "Ġ1998": 3939,
      "Ġterms": 3940,
      "ĠManchester": 3941,
      "Ġlif": 3942,
      "ria": 3943,
      "ĠHel": 3944,
      "Ġprofessional": 3945,
      "Ġcolon": 3946,
      "ĠCro": 3947,
      "ĠFollowing": 3948,
      "Ġprivate": 3949,
      "ĠCouncil": 3950,
      "Ġban": 3951,
      "ĠRail": 3952,
      "Ġserious": 3953,
      "ĠSea": 3954,
      "ĠTour": 3955,
      "uries": 3956,
      "ĠOl": 3957,
      "Ġending": 3958,
      "Hello": 3959,
      "Ġnothing": 3960,
      "Ġmedia": 3961,
      "Ġexperi": 3962,
      "Ġmodel": 3963,
      "Ġindividual": 3964,
      "ĠParty": 3965,
      "Ġremoved": 3966,
      "ocr": 3967,
      "Ġadminist": 3968,
      "Ġwel": 3969,
      "Ġinitial": 3970,
      "Ġbene": 3971,
      "ĠViet": 3972,
      "ironment": 3973,
      "Ġrevealed": 3974,
      "back": 3975,
      "Ġsinging": 3976,
      "Ġupper": 3977,
      "ĠJew": 3978,
      "Ġshown": 3979,
      "well": 3980,
      "ĠSecond": 3981,
      "Ġinspired": 3982,
      "Ġtarget": 3983,
      "uals": 3984,
      "ĠBow": 3985,
      "Ġlocation": 3986,
      "Ġgas": 3987,
      "umed": 3988,
      "Ġteacher": 3989,
      "down": 3990,
      "Ã¶": 3991,
      "cl": 3992,
      "Ã¼": 3993,
      "Ġminute": 3994,
      "Ġbelow": 3995,
      "ãĥ": 3996,
      "Ġwhether": 3997,
      "ening": 3998,
      "ĠBig": 3999,
      "ously": 4000,
      "izing": 4001,
      "Ġattention": 4002,
      "Ġmur": 4003,
      "Ġthick": 4004,
      "Ġscenes": 4005,
      "Ġrefused": 4006,
      "Ġunl": 4007,
      "ĠSong": 4008,
      "Ġsuffered": 4009,
      "Ġpulled": 4010,
      "Ġpeak": 4011,
      "vert": 4012,
      "Ġmajority": 4013,
      "Ġdomin": 4014,
      "Ġplans": 4015,
      "ili": 4016,
      "stant": 4017,
      "Ġamazing": 4018,
      "ee": 4019,
      "ĠOper": 4020,
      "Ġvia": 4021,
      "Ġring": 4022,
      "ĠEarth": 4023,
      "Ġlaunched": 4024,
      "Ġapproach": 4025,
      "ĠCorps": 4026,
      "uk": 4027,
      "\".": 4028,
      "ĠUp": 4029,
      "ĠAfrica": 4030,
      "Ġ1997": 4031,
      "ĠPenn": 4032,
      "ĠDem": 4033,
      "ĠHa": 4034,
      "Ġrights": 4035,
      "Ġpractice": 4036,
      "Ġassociated": 4037,
      "ĠHur": 4038,
      "Ġoperation": 4039,
      "Ġnest": 4040,
      "Ġagre": 4041,
      "Ġpurp": 4042,
      "Ġpull": 4043,
      "ĠArt": 4044,
      "Ġadop": 4045,
      "Ġlyrics": 4046,
      "Ġattend": 4047,
      "ĠLater": 4048,
      "ĠLove": 4049,
      "ography": 4050,
      "isions": 4051,
      "Ġsuggest": 4052,
      "ĠBoth": 4053,
      "Ġcapital": 4054,
      "ounds": 4055,
      "Ġprep": 4056,
      "Ġoccurred": 4057,
      "Ġsch": 4058,
      "ĠMost": 4059,
      "Ġmanaged": 4060,
      "ĠEnter": 4061,
      "ĠEdward": 4062,
      "Ġhoped": 4063,
      "Ġbowl": 4064,
      "Ġreact": 4065,
      "Ġblock": 4066,
      "Ġbatter": 4067,
      "Ġ38": 4068,
      "Ġconsist": 4069,
      "itude": 4070,
      "Ġgives": 4071,
      "ĠBillboard": 4072,
      "Ġgar": 4073,
      "Ġmovement": 4074,
      "ĠCle": 4075,
      "house": 4076,
      "Ġhour": 4077,
      "Ġlog": 4078,
      "Ġegg": 4079,
      "Ġproducer": 4080,
      "Ġgrew": 4081,
      "Ġhero": 4082,
      "Ġcounter": 4083,
      "ederal": 4084,
      "ements": 4085,
      "Ġfeed": 4086,
      "Ġstatus": 4087,
      "Ġmetal": 4088,
      "Ġdistance": 4089,
      "Ġholding": 4090,
      "ĠCenter": 4091,
      "riage": 4092,
      "Ġ37": 4093,
      "Ġleader": 4094,
      "Ġofficer": 4095,
      "ĠAwards": 4096,
      "Ġsubsequently": 4097,
      "pire": 4098,
      "Ġsen": 4099,
      "ĠFort": 4100,
      "Ġnumerous": 4101,
      "jected": 4102,
      "Ġcontem": 4103,
      "Ġrespectively": 4104,
      "Ġdangerous": 4105,
      "uf": 4106,
      "ĠStr": 4107,
      "Ġprincip": 4108,
      "umber": 4109,
      "Ġdeliver": 4110,
      "Ġlargely": 4111,
      "Ġmention": 4112,
      "ĠMa": 4113,
      "Ġfigure": 4114,
      "Ġmanager": 4115,
      "Ġimag": 4116,
      "Ġattacks": 4117,
      "ĠTra": 4118,
      "Ġstone": 4119,
      "Ġyes": 4120,
      "Ġbattles": 4121,
      "isk": 4122,
      "Ġrough": 4123,
      "Ġ1950": 4124,
      "hold": 4125,
      "Ġrat": 4126,
      "Ġservices": 4127,
      "ĠSquadron": 4128,
      "rol": 4129,
      "Ġmoral": 4130,
      "Ġassigned": 4131,
      "estival": 4132,
      "Ġhospital": 4133,
      "Ġaccomp": 4134,
      "Ġpromised": 4135,
      "ancing": 4136,
      "Ġgrandma": 4137,
      "Ġcup": 4138,
      "Ġclimbed": 4139,
      "Ġmist": 4140,
      "Ġmale": 4141,
      "Ġsaf": 4142,
      "irm": 4143,
      "Ġhelping": 4144,
      "Ġplot": 4145,
      "Ġaccepted": 4146,
      "Ġdelicious": 4147,
      "ĠBC": 4148,
      "Ġappears": 4149,
      "isa": 4150,
      "ĠHist": 4151,
      "order": 4152,
      "ĠClub": 4153,
      "Ġprimary": 4154,
      "ani": 4155,
      "Ġattempted": 4156,
      "ĠMany": 4157,
      "ify": 4158,
      "Ġ180": 4159,
      "ĠLu": 4160,
      "ĠLila": 4161,
      "Ġwing": 4162,
      "Ġexpected": 4163,
      "Ġnation": 4164,
      "Ġrate": 4165,
      "Ġperm": 4166,
      "ault": 4167,
      "ĠRad": 4168,
      "Ġcontinue": 4169,
      "undred": 4170,
      "Ġconditions": 4171,
      "echan": 4172,
      "ĠTor": 4173,
      "Ġinstr": 4174,
      "Ġdrive": 4175,
      "uated": 4176,
      "osh": 4177,
      "Ġstandard": 4178,
      "Ġreferred": 4179,
      "utch": 4180,
      "ols": 4181,
      "Ġgoals": 4182,
      "Ġcoach": 4183,
      "Ġstreet": 4184,
      "Ġselected": 4185,
      "ĠKent": 4186,
      "Ġpretend": 4187,
      "Ġmountain": 4188,
      "ĠMexico": 4189,
      "ĠFlorida": 4190,
      "Ġund": 4191,
      "ĠJohnson": 4192,
      "burg": 4193,
      "Ġpan": 4194,
      "Ġsail": 4195,
      "Ġrecomm": 4196,
      "Ġplaces": 4197,
      "ems": 4198,
      "ounted": 4199,
      "ĠAmy": 4200,
      "ĠFred": 4201,
      "ĠEr": 4202,
      "ĠMass": 4203,
      "Ġcompetition": 4204,
      "Ġextra": 4205,
      "ĠBec": 4206,
      "Ġstarting": 4207,
      "ĠMichigan": 4208,
      "ĠHo": 4209,
      "Ġtells": 4210,
      "Ġlisted": 4211,
      "ĠHighway": 4212,
      "ĠBell": 4213,
      "Ġscience": 4214,
      "Ġtrue": 4215,
      "Ġportray": 4216,
      "Ġdouble": 4217,
      "Ġmovie": 4218,
      "Ġcannot": 4219,
      "Ġhy": 4220,
      "oms": 4221,
      "Ġbasket": 4222,
      "inn": 4223,
      "Ġinformation": 4224,
      "Ġcalling": 4225,
      "ĠIII": 4226,
      "Ġreligious": 4227,
      "Ġ49": 4228,
      "ĠIre": 4229,
      "Ġsy": 4230,
      "Ġhide": 4231,
      "ores": 4232,
      "Ġ183": 4233,
      "Ġactive": 4234,
      "Ġindustry": 4235,
      "Ġnewsp": 4236,
      "ĠMaybe": 4237,
      "Ġnort": 4238,
      "Ġ90": 4239,
      "ya": 4240,
      "Ġthrew": 4241,
      "Ġmeth": 4242,
      "Ġfaster": 4243,
      "Ġnucle": 4244,
      "ĠMo": 4245,
      "Ġstrugg": 4246,
      "Ġattacked": 4247,
      "lor": 4248,
      "Åį": 4249,
      "Ġdra": 4250,
      "ĠSov": 4251,
      "Ġquiet": 4252,
      "Ġslight": 4253,
      "Ġunit": 4254,
      "Ġdepression": 4255,
      "Ġmachine": 4256,
      "ĠCamp": 4257,
      "ĠInter": 4258,
      "Ġsched": 4259,
      "Ġ34": 4260,
      "Ġur": 4261,
      "Ġens": 4262,
      "Ġreason": 4263,
      "ĠBoy": 4264,
      "Ġpromot": 4265,
      "Ġartist": 4266,
      "Ġseparate": 4267,
      "ĠInf": 4268,
      "ĠMinister": 4269,
      "Ġdeclared": 4270,
      "Ã³": 4271,
      "ĠOut": 4272,
      "bridge": 4273,
      "Ġmeas": 4274,
      "Ġcaptain": 4275,
      "ĠUnder": 4276,
      "Ġcontains": 4277,
      "anes": 4278,
      "Ġscary": 4279,
      "Ġthr": 4280,
      "venue": 4281,
      "Ġ1995": 4282,
      "Ġstrange": 4283,
      "Ġelected": 4284,
      "His": 4285,
      "urity": 4286,
      "ĠSir": 4287,
      "Ġaltern": 4288,
      "Ġplants": 4289,
      "Ġissues": 4290,
      "asty": 4291,
      "ĠCross": 4292,
      "Ġsquare": 4293,
      "ĠCongress": 4294,
      "ote": 4295,
      "ĠCath": 4296,
      "Then": 4297,
      "Ġmatches": 4298,
      "Ġresulted": 4299,
      "uments": 4300,
      "ĠBrad": 4301,
      "road": 4302,
      "Ġabandon": 4303,
      "ey": 4304,
      "Ġcream": 4305,
      "ĠZeal": 4306,
      "Ġeducation": 4307,
      "Ġlistened": 4308,
      "Ġhun": 4309,
      "Ġkiss": 4310,
      "ĠSoviet": 4311,
      "Ġdoctor": 4312,
      "Ġjoy": 4313,
      "Ġarchit": 4314,
      "Ġsect": 4315,
      "arm": 4316,
      "Ġmax": 4317,
      "illa": 4318,
      "rap": 4319,
      "ables": 4320,
      "oured": 4321,
      "Ġdrink": 4322,
      "tellig": 4323,
      "ĠGames": 4324,
      "Ġteach": 4325,
      "Ġindependent": 4326,
      "Ġincor": 4327,
      "thur": 4328,
      "Ġunable": 4329,
      "Ġgather": 4330,
      "Ġearned": 4331,
      "Ġfear": 4332,
      "Ġshel": 4333,
      "ĠCarl": 4334,
      "OK": 4335,
      "Ġhid": 4336,
      "Ġaudience": 4337,
      "ĠIreland": 4338,
      "ĠApp": 4339,
      "Ġ179": 4340,
      "irrel": 4341,
      "Ġcommented": 4342,
      "Ġhungry": 4343,
      "bles": 4344,
      "Ġrout": 4345,
      "Ġcomposed": 4346,
      "ĠLord": 4347,
      "Ġscale": 4348,
      "Ġresc": 4349,
      "ĠZealand": 4350,
      "ĠSun": 4351,
      "Ġschools": 4352,
      "ibly": 4353,
      "Ġinters": 4354,
      "Ġsinger": 4355,
      "Jack": 4356,
      "Ġwings": 4357,
      "ĠServ": 4358,
      "ĠDaisy": 4359,
      "everal": 4360,
      "Ġcritical": 4361,
      "ĠTexas": 4362,
      "Ġpushed": 4363,
      "ylv": 4364,
      "isher": 4365,
      "ĠFore": 4366,
      "Ġseemed": 4367,
      "Ġneg": 4368,
      "ĠAngeles": 4369,
      "yal": 4370,
      "orrow": 4371,
      "ube": 4372,
      "Ġstating": 4373,
      "ĠDel": 4374,
      "Ġsymb": 4375,
      "quar": 4376,
      "Ġspir": 4377,
      "Ġolder": 4378,
      "ĠDist": 4379,
      "Ġsubject": 4380,
      "Ġ1996": 4381,
      "Ġwaited": 4382,
      "Ġeffort": 4383,
      "aily": 4384,
      "Ġcontent": 4385,
      "icted": 4386,
      "Ġcombat": 4387,
      "ares": 4388,
      "andy": 4389,
      "Ġwave": 4390,
      "Ġrepe": 4391,
      "Ġannual": 4392,
      "Ġdefeat": 4393,
      "Ġdu": 4394,
      "Ġaccount": 4395,
      "wh": 4396,
      "Ġfunction": 4397,
      "Ġconcept": 4398,
      "Ġconstructed": 4399,
      "ĠItalian": 4400,
      "Ġtraffic": 4401,
      "cks": 4402,
      "Ġsides": 4403,
      "Ġ1940": 4404,
      "yard": 4405,
      "udd": 4406,
      "ingu": 4407,
      "Ġjourney": 4408,
      "Ġnecess": 4409,
      "ples": 4410,
      "Ġblood": 4411,
      "Ġlegisl": 4412,
      "Ġbal": 4413,
      "Ġfinanc": 4414,
      "cy": 4415,
      "Ġdom": 4416,
      "ept": 4417,
      "Ġamb": 4418,
      "Ġsmiles": 4419,
      "ĠWilliams": 4420,
      "Ġnetwork": 4421,
      "ressive": 4422,
      "Ġqual": 4423,
      "Ġcommander": 4424,
      "uten": 4425,
      "Ġdut": 4426,
      "Ġdirection": 4427,
      "ĠDepartment": 4428,
      "ĠDun": 4429,
      "Ġcentre": 4430,
      "ĠTur": 4431,
      "Ġtermin": 4432,
      "ĠTommy": 4433,
      "Ġcas": 4434,
      "Ġpal": 4435,
      "ips": 4436,
      "ounts": 4437,
      "Ġ1994": 4438,
      "Ġtraditional": 4439,
      "Ġpresented": 4440,
      "à¸": 4441,
      "VD": 4442,
      "awn": 4443,
      "elly": 4444,
      "ties": 4445,
      "win": 4446,
      "Ġbought": 4447,
      "Ġlevels": 4448,
      "Ġ47": 4449,
      "Ġmeaning": 4450,
      "Ġwoods": 4451,
      "ugh": 4452,
      "ĠVer": 4453,
      "Ġefforts": 4454,
      "Ġ1930": 4455,
      "'ll": 4456,
      "rier": 4457,
      "oses": 4458,
      "Ġfeels": 4459,
      "Ġsquirrel": 4460,
      "ĠCentral": 4461,
      "Ġrecords": 4462,
      "Ġrapid": 4463,
      "onna": 4464,
      "vention": 4465,
      "ĠLittle": 4466,
      "Ġtheme": 4467,
      "Ġmagic": 4468,
      "Ġgoes": 4469,
      "ĠLaw": 4470,
      "Ġpuppy": 4471,
      "nam": 4472,
      "ĠGroup": 4473,
      "Ġ2016": 4474,
      "Ġmine": 4475,
      "Ġrein": 4476,
      "Ġfit": 4477,
      "Ġattended": 4478,
      "Ġ55": 4479,
      "Ġdaddy": 4480,
      "ĠAfrican": 4481,
      "ĠMatt": 4482,
      "Ġmeasure": 4483,
      "ĠTrans": 4484,
      "antasy": 4485,
      "Ġthinks": 4486,
      "ĠBet": 4487,
      "Ġproduce": 4488,
      "Ġbath": 4489,
      "ĠHaw": 4490,
      "Ġchief": 4491,
      "ĠSouthern": 4492,
      "Ġmel": 4493,
      "Ġmechan": 4494,
      "ims": 4495,
      "odies": 4496,
      "Ġconstit": 4497,
      "Ġmagn": 4498,
      "Ġsuc": 4499,
      "Ġcookies": 4500,
      "ĠScotland": 4501,
      "Ġcounty": 4502,
      "Ġcollection": 4503,
      "known": 4504,
      "Ġwalls": 4505,
      "Ġenvironment": 4506,
      "iated": 4507,
      "Ġpilot": 4508,
      "Ġlin": 4509,
      "ĠFilm": 4510,
      "Ġscript": 4511,
      "ĠWal": 4512,
      "Ġspark": 4513,
      "There": 4514,
      "phy": 4515,
      "Ġ1992": 4516,
      "Ġreduced": 4517,
      "Ġconcer": 4518,
      "Ġsounds": 4519,
      "light": 4520,
      "osen": 4521,
      "ĠKore": 4522,
      "ounded": 4523,
      "icip": 4524,
      "Ġhall": 4525,
      "Ġspin": 4526,
      "Ġstrength": 4527,
      "Ġencour": 4528,
      "Ġkilomet": 4529,
      "Äĩ": 4530,
      "ĠJose": 4531,
      "Ġcontroll": 4532,
      "Ġ39": 4533,
      "Ġmetres": 4534,
      "Ġresponsible": 4535,
      "Ġeating": 4536,
      "ĠMel": 4537,
      "Ġstra": 4538,
      "Ġtorped": 4539,
      "ĠQueen": 4540,
      "ceeded": 4541,
      "Ġinches": 4542,
      "Ġjournal": 4543,
      "ĠSil": 4544,
      "ĠOff": 4545,
      "ĠRev": 4546,
      "ĠBu": 4547,
      "Ġhighly": 4548,
      "ĠBlue": 4549,
      "ĠDVD": 4550,
      "Ġtwenty": 4551,
      "ĠOp": 4552,
      "Ġobserved": 4553,
      "apped": 4554,
      "nee": 4555,
      "Ġactually": 4556,
      "Ġtransport": 4557,
      "Ġsilly": 4558,
      "ĠPet": 4559,
      "ĠMartin": 4560,
      "right": 4561,
      "Ġfox": 4562,
      "Ġ42": 4563,
      "Ġdocument": 4564,
      "Ġcollege": 4565,
      "ona": 4566,
      "ĠLand": 4567,
      "eway": 4568,
      "ĠAnother": 4569,
      "Ġneck": 4570,
      "Ġability": 4571,
      "Ġ400": 4572,
      "Ġbegins": 4573,
      "Ġsixt": 4574,
      "Ġbank": 4575,
      "Ġchampionship": 4576,
      "Ġpresence": 4577,
      "Ġstruck": 4578,
      "edy": 4579,
      "ĠWales": 4580,
      "Ġexped": 4581,
      "ends": 4582,
      "ĠCam": 4583,
      "ĠOtt": 4584,
      "Ġaccept": 4585,
      "Ġpurs": 4586,
      "ĠYear": 4587,
      "band": 4588,
      "Ġhundred": 4589,
      "entle": 4590,
      "Ġamount": 4591,
      "Ġduck": 4592,
      "icient": 4593,
      "Ġhope": 4594,
      "Ġdirectly": 4595,
      "Ġseat": 4596,
      "ĠSn": 4597,
      "ogue": 4598,
      "MS": 4599,
      "Ġtourn": 4600,
      "inary": 4601,
      "olk": 4602,
      "Ġasp": 4603,
      "ĠBattalion": 4604,
      "cel": 4605,
      "Ġcandid": 4606,
      "Ġstanding": 4607,
      "Ġinnings": 4608,
      "Ġmarked": 4609,
      "ĠSaint": 4610,
      "lict": 4611,
      "roll": 4612,
      "Ġdistinct": 4613,
      "Ġtransferred": 4614,
      "ĠMount": 4615,
      "ĠLong": 4616,
      "ervation": 4617,
      "och": 4618,
      "arrow": 4619,
      "Ġuses": 4620,
      "Ġlas": 4621,
      "Ġweather": 4622,
      "Ġsuppl": 4623,
      "Ġvariety": 4624,
      "Ġdrove": 4625,
      "bon": 4626,
      "Ġash": 4627,
      "ulations": 4628,
      "Ġeye": 4629,
      "Ġwish": 4630,
      "Ġgreater": 4631,
      "Ġsave": 4632,
      "Ġdetermined": 4633,
      "Ġplat": 4634,
      "reme": 4635,
      "Ġinch": 4636,
      "Ġconducted": 4637,
      "ĠRussian": 4638,
      "atre": 4639,
      "ishop": 4640,
      "Ġbigger": 4641,
      "ĠBost": 4642,
      "unity": 4643,
      "Ġpaid": 4644,
      "Ġpit": 4645,
      "inger": 4646,
      "Ġ41": 4647,
      "Ġwinter": 4648,
      "Ġedition": 4649,
      "Ġbeat": 4650,
      "Ġrub": 4651,
      "Ġroyal": 4652,
      "Ġ181": 4653,
      "Ġign": 4654,
      "Ġselling": 4655,
      "gypt": 4656,
      "Ġble": 4657,
      "anted": 4658,
      "Ġearth": 4659,
      "irmed": 4660,
      "ĠAre": 4661,
      "Ġrob": 4662,
      "May": 4663,
      "ĠNorm": 4664,
      "Ġallowing": 4665,
      "Ġadvance": 4666,
      "Ġattract": 4667,
      "Ġdrew": 4668,
      "ĠFer": 4669,
      "Ġseed": 4670,
      "Ġsource": 4671,
      "mas": 4672,
      "Ġpositions": 4673,
      "Ġresulting": 4674,
      "ĠCarolina": 4675,
      "Ġtrip": 4676,
      "ĠCare": 4677,
      "Ġ48": 4678,
      "Ġnote": 4679,
      "Ġcard": 4680,
      "Ġ182": 4681,
      "ĠIrish": 4682,
      "ĠGreek": 4683,
      "orses": 4684,
      "hips": 4685,
      "ieuten": 4686,
      "hab": 4687,
      "Ġben": 4688,
      "Ġplane": 4689,
      "Ġfamous": 4690,
      "arian": 4691,
      "ĠDou": 4692,
      "Ġfounded": 4693,
      "under": 4694,
      "Ġchose": 4695,
      "Ġ1991": 4696,
      "Ġdemonst": 4697,
      "Ġarchitect": 4698,
      "By": 4699,
      "Ġcit": 4700,
      "Ġchap": 4701,
      "Ġunknown": 4702,
      "Ġforms": 4703,
      "Ġblank": 4704,
      "Ġescape": 4705,
      "Ġrang": 4706,
      "ĠPo": 4707,
      "Ġenemy": 4708,
      "Ġdisco": 4709,
      "ĠColumb": 4710,
      "Ġcontinues": 4711,
      "Ġmagical": 4712,
      "ĠFur": 4713,
      "Ġsilver": 4714,
      "hew": 4715,
      "ĠTre": 4716,
      "Ġge": 4717,
      "ĠAcad": 4718,
      "Ġdism": 4719,
      "Ġnews": 4720,
      "Ġahead": 4721,
      "ero": 4722,
      "ĠEgypt": 4723,
      "Ġworried": 4724,
      "Ġquality": 4725,
      "Ġmarriage": 4726,
      "Ġvisited": 4727,
      "ĠGood": 4728,
      "Ġcompletely": 4729,
      "Ġamazed": 4730,
      "utions": 4731,
      "venth": 4732,
      "Ġattempts": 4733,
      "Ġbecomes": 4734,
      "ĠBoston": 4735,
      "ĠSum": 4736,
      "ada": 4737,
      "ĠLatin": 4738,
      "ĠEnd": 4739,
      "Ġarrest": 4740,
      "ĠSur": 4741,
      "abin": 4742,
      "Ġcyclone": 4743,
      "Ġancient": 4744,
      "Ġmaintain": 4745,
      "Ġhol": 4746,
      "iger": 4747,
      "Ġnotes": 4748,
      "Ġencoun": 4749,
      "ĠSecret": 4750,
      "Ġhomes": 4751,
      "Ġcompanies": 4752,
      "ĠRom": 4753,
      "ĠFoot": 4754,
      "Ġ1993": 4755,
      "Ġwriters": 4756,
      "Ġcust": 4757,
      "ĠSol": 4758,
      "adow": 4759,
      "Ġincorpor": 4760,
      "Ġcoal": 4761,
      "Ġpattern": 4762,
      "Ġreaching": 4763,
      "ĠCaptain": 4764,
      "force": 4765,
      "Ġcollabor": 4766,
      "Ġcrow": 4767,
      "ĠHot": 4768,
      "Ġcart": 4769,
      "alle": 4770,
      "Ġdecor": 4771,
      "Ġlegal": 4772,
      "Ġpotential": 4773,
      "Ġactions": 4774,
      "ef": 4775,
      "ĠSince": 4776,
      "Max": 4777,
      "ĠCreek": 4778,
      "Ġorganized": 4779,
      "ĠTime": 4780,
      "ĠChris": 4781,
      "ĠLee": 4782,
      "Ġguard": 4783,
      "ĠEmpire": 4784,
      "Ġsituation": 4785,
      "Ġdrop": 4786,
      "ateful": 4787,
      "Ġacting": 4788,
      "Ġeconomic": 4789,
      "gal": 4790,
      "ashed": 4791,
      "Ġgiant": 4792,
      "ette": 4793,
      "Ġowned": 4794,
      "ĠOx": 4795,
      "Ġbehav": 4796,
      "Ġvehicles": 4797,
      "ners": 4798,
      "Ġpack": 4799,
      "iÄĩ": 4800,
      "Ġiron": 4801,
      "Ġteddy": 4802,
      "Ġforeign": 4803,
      "adel": 4804,
      "laim": 4805,
      "Ġast": 4806,
      "ĠTri": 4807,
      "ĠGar": 4808,
      "ita": 4809,
      "annel": 4810,
      "Ġsought": 4811,
      "Ġeverywhere": 4812,
      "ola": 4813,
      "Ġrespond": 4814,
      "Ġplays": 4815,
      "Ġox": 4816,
      "ĠDutch": 4817,
      "Ġupset": 4818,
      "Ġdriver": 4819,
      "Ġconcluded": 4820,
      "ieutenant": 4821,
      "Ġi": 4822,
      "Ġsang": 4823,
      "ĠArch": 4824,
      "Ġfan": 4825,
      "ĠBridge": 4826,
      "ĠCons": 4827,
      "Ġshop": 4828,
      "iano": 4829,
      "Ġrelatively": 4830,
      "lo": 4831,
      "reak": 4832,
      "Ġpointed": 4833,
      "Ġroof": 4834,
      "Ġunique": 4835,
      "Ġ1942": 4836,
      "Ġdragon": 4837,
      "Ġcompos": 4838,
      "Ġserve": 4839,
      "Ġsharp": 4840,
      "Ġded": 4841,
      "Ġanyone": 4842,
      "Ġsociety": 4843,
      "rec": 4844,
      "Ġtitled": 4845,
      "Ġcorner": 4846,
      "Ġconver": 4847,
      "Ġscoring": 4848,
      "Ġ44": 4849,
      "Ġportion": 4850,
      "Ġvalue": 4851,
      "wide": 4852,
      "Ġbat": 4853,
      "ĠWin": 4854,
      "resh": 4855,
      "Ġgrowing": 4856,
      "ĠTest": 4857,
      "Ġcompar": 4858,
      "Ġprimarily": 4859,
      "Ġmaximum": 4860,
      "Ġrule": 4861,
      "Ġopport": 4862,
      "Ġconcert": 4863,
      "Ġpassing": 4864,
      "isation": 4865,
      "aven": 4866,
      "Ġir": 4867,
      "Ġ64": 4868,
      "ĠAdmiral": 4869,
      "iable": 4870,
      "ĠDen": 4871,
      "illery": 4872,
      "Ġplanet": 4873,
      "Ġcandy": 4874,
      "iqu": 4875,
      "Ġdise": 4876,
      "Ġmonster": 4877,
      "ĠBrigade": 4878,
      "Ġequip": 4879,
      "Ġslightly": 4880,
      "Maybe": 4881,
      "ĠStone": 4882,
      "Ġperformances": 4883,
      "ĠParliament": 4884,
      "Ġmic": 4885,
      "ĠPen": 4886,
      "Ġstepped": 4887,
      "Ġviewers": 4888,
      "Oh": 4889,
      "Ġcharge": 4890,
      "ĠCommittee": 4891,
      "Ġsense": 4892,
      "Ġspring": 4893,
      "Ġmotor": 4894,
      "ĠGra": 4895,
      "Ġsurre": 4896,
      "while": 4897,
      "Ġsout": 4898,
      "anda": 4899,
      "ĠEven": 4900,
      "Ġballoon": 4901,
      "Ġess": 4902,
      "ĠMic": 4903,
      "Ġ65": 4904,
      "Ġhang": 4905,
      "ading": 4906,
      "Ġresist": 4907,
      "Ġoffer": 4908,
      "Ġimpact": 4909,
      "Ġdolls": 4910,
      "Ġterritory": 4911,
      "mond": 4912,
      "Ġbul": 4913,
      "Ġhuge": 4914,
      "iverse": 4915,
      "box": 4916,
      "rid": 4917,
      "Ġcamer": 4918,
      "Ġlic": 4919,
      "ĠTeam": 4920,
      "ĠRecords": 4921,
      "Ġ1945": 4922,
      "stitute": 4923,
      "Ġschol": 4924,
      "zer": 4925,
      "Ġsmart": 4926,
      "nic": 4927,
      "ĠJul": 4928,
      "ighth": 4929,
      "Ġfarmer": 4930,
      "ylvania": 4931,
      "Ġvess": 4932,
      "Ġconcern": 4933,
      "yond": 4934,
      "istry": 4935,
      "Ġconflict": 4936,
      "Ġvocal": 4937,
      "Ġtoward": 4938,
      "ĠNot": 4939,
      "Ġnormal": 4940,
      "Ġgained": 4941,
      "Ġrocks": 4942,
      "Ġdesignated": 4943,
      "Ġculture": 4944,
      "Ġfinancial": 4945,
      "Ġunus": 4946,
      "Ġtrial": 4947,
      "Ġgentle": 4948,
      "Ġrelie": 4949,
      "Ġcontrovers": 4950,
      "racted": 4951,
      "min": 4952,
      "Ġfuel": 4953,
      "Ġwatching": 4954,
      "Ġsust": 4955,
      "Ġsupply": 4956,
      "sych": 4957,
      "ĠFrancis": 4958,
      "ĠOh": 4959,
      "AF": 4960,
      "imate": 4961,
      "Ġ1941": 4962,
      "Ġwearing": 4963,
      "Ġfruit": 4964,
      "ishing": 4965,
      "Ġconnect": 4966,
      "Ġintellig": 4967,
      "ican": 4968,
      "Ġgreatest": 4969,
      "Ġwidely": 4970,
      "yer": 4971,
      "Ġgrateful": 4972,
      "pool": 4973,
      "ety": 4974,
      "Ġbuck": 4975,
      "Ġbike": 4976,
      "Ġ43": 4977,
      "Ġneighbor": 4978,
      "ĠDes": 4979,
      "Ġpeaked": 4980,
      "Ġnaval": 4981,
      "ĠMike": 4982,
      "Ġprincess": 4983,
      "Ġshr": 4984,
      "Ġlaid": 4985,
      "ĠFox": 4986,
      "Ġsexual": 4987,
      "tein": 4988,
      "Ġstret": 4989,
      "Ġfavour": 4990,
      "Ġtal": 4991,
      "ĠIns": 4992,
      "azz": 4993,
      "ĠCatholic": 4994,
      "gen": 4995,
      "Ġrecent": 4996,
      "Ġsubsequent": 4997,
      "Ġsuddenly": 4998,
      "ĠKar": 4999,
      "Ġfollows": 5000,
      "Ġsick": 5001,
      "Ġru": 5002,
      "bury": 5003,
      "Ġthous": 5004,
      "ogether": 5005,
      "ĠFinal": 5006,
      "Ġsuit": 5007,
      "ĠYoung": 5008,
      "Ġequipment": 5009,
      "Ġdiam": 5010,
      "ĠMem": 5011,
      "Ġchallen": 5012,
      "Ġsom": 5013,
      "ĠBat": 5014,
      "awa": 5015,
      "Ġ1920": 5016,
      "Ġspirit": 5017,
      "ĠHol": 5018,
      "Ġexhib": 5019,
      "ells": 5020,
      "Ġmyster": 5021,
      "izes": 5022,
      "Ġexpressed": 5023,
      "otyp": 5024,
      "ĠChief": 5025,
      "Ġpremi": 5026,
      "onic": 5027,
      "ato": 5028,
      "Ġhus": 5029,
      "perial": 5030,
      "Ġ1944": 5031,
      "ĠNorthern": 5032,
      "Ġultimately": 5033,
      "ĠHor": 5034,
      "Ġactivity": 5035,
      "ĠJeff": 5036,
      "Ġimage": 5037,
      "Ġsetting": 5038,
      "Ġemot": 5039,
      "ux": 5040,
      "Ġpromoted": 5041,
      "Ġletters": 5042,
      "Ġlives": 5043,
      "Ġresidents": 5044,
      "Ġmainly": 5045,
      "ĠCommission": 5046,
      "Ġcases": 5047,
      "quarters": 5048,
      "ĠSociety": 5049,
      "Ġrating": 5050,
      "Ġjun": 5051,
      "ĠStep": 5052,
      "ĠBon": 5053,
      "Ġdirty": 5054,
      "ĠBond": 5055,
      "ishes": 5056,
      "ĠPan": 5057,
      "ĠDar": 5058,
      "ĠNin": 5059,
      "Ġadj": 5060,
      "ledge": 5061,
      "track": 5062,
      "Ġmultiple": 5063,
      "ĠDemocr": 5064,
      "ients": 5065,
      "Ġinfluenced": 5066,
      "Ġcolorful": 5067,
      "Ġpun": 5068,
      "ĠMore": 5069,
      "Ġ150": 5070,
      "Ġdivided": 5071,
      "ication": 5072,
      "Ġtwins": 5073,
      "Ġcrying": 5074,
      "ĠVan": 5075,
      "Ġera": 5076,
      "Ġofficials": 5077,
      "peror": 5078,
      "urban": 5079,
      "Ġorange": 5080,
      "Ġstraight": 5081,
      "ding": 5082,
      "Ġnortheast": 5083,
      "Ġtank": 5084,
      "Ġfat": 5085,
      "ĠSus": 5086,
      "Ġtransl": 5087,
      "Ġphil": 5088,
      "Ġpoet": 5089,
      "Ġargued": 5090,
      "orks": 5091,
      "ĠParis": 5092,
      "Ġweapons": 5093,
      "rate": 5094,
      "Ġconcent": 5095,
      "Ġgrowth": 5096,
      "Ġhorses": 5097,
      "ĠTem": 5098,
      "ĠLisa": 5099,
      "Ġproved": 5100,
      "ĠPenns": 5101,
      "Ġcloth": 5102,
      "ĠStan": 5103,
      "Ġwouldn": 5104,
      "Ġstudies": 5105,
      "gian": 5106,
      "Ġfa": 5107,
      "Ġsystems": 5108,
      "orter": 5109,
      "ĠLight": 5110,
      "Ġinterp": 5111,
      "Ġcombined": 5112,
      "Ar": 5113,
      "Ġstuck": 5114,
      "apers": 5115,
      "ĠGre": 5116,
      "Ġnorthwest": 5117,
      "Ġcausing": 5118,
      "Ġbound": 5119,
      "pher": 5120,
      "ĠAmericans": 5121,
      "Ġalongside": 5122,
      "Ġrepresented": 5123,
      "itan": 5124,
      "Ġboats": 5125,
      "Ġstudent": 5126,
      "Ġtheory": 5127,
      "Ġsitting": 5128,
      "Ġhyd": 5129,
      "ĠMajor": 5130,
      "ĠPrinc": 5131,
      "ĠWilson": 5132,
      "ĠJill": 5133,
      "Ġcolour": 5134,
      "erc": 5135,
      "aming": 5136,
      "ker": 5137,
      "Ġfeaturing": 5138,
      "Ġavoid": 5139,
      "ĠDis": 5140,
      "Ġunp": 5141,
      "ĠSeries": 5142,
      "Ġbirthday": 5143,
      "Ġocean": 5144,
      "Ġmuseum": 5145,
      "iance": 5146,
      "ĠThree": 5147,
      "While": 5148,
      "Ġheavily": 5149,
      "ĠKh": 5150,
      "ĠSpec": 5151,
      "Ġelev": 5152,
      "rich": 5153,
      "ota": 5154,
      "Ġprin": 5155,
      "bow": 5156,
      "lie": 5157,
      "Ġlosing": 5158,
      "Ġadventures": 5159,
      "Ġagreement": 5160,
      "antly": 5161,
      "Ġartists": 5162,
      "Ġowl": 5163,
      "Ġ+": 5164,
      "Ġmissed": 5165,
      "gu": 5166,
      "Ġdelay": 5167,
      "ender": 5168,
      "Ġchem": 5169,
      "ĠSoon": 5170,
      "ĠLike": 5171,
      "assed": 5172,
      "Ġgraph": 5173,
      "ĠInfantry": 5174,
      "ĠHan": 5175,
      "ĠMuseum": 5176,
      "ĠCroat": 5177,
      "Okay": 5178,
      "va": 5179,
      "ĠBBC": 5180,
      "oln": 5181,
      "Ġbackground": 5182,
      "Ġspotted": 5183,
      "Ġrid": 5184,
      "Ġ52": 5185,
      "ronic": 5186,
      "Ġidentified": 5187,
      "Ġsplit": 5188,
      "ooth": 5189,
      "Ġpock": 5190,
      "Ġseasons": 5191,
      "Ġtournament": 5192,
      "TV": 5193,
      "outs": 5194,
      "agn": 5195,
      "Ġ46": 5196,
      "Ġactor": 5197,
      "Ġshortly": 5198,
      "ĠSant": 5199,
      "ansion": 5200,
      "Ġguest": 5201,
      "ategory": 5202,
      "Ġcouple": 5203,
      "Ġexec": 5204,
      "AS": 5205,
      "ĠRoll": 5206,
      "Ġoccasion": 5207,
      "Ġrh": 5208,
      "Ġscre": 5209,
      "Ġseconds": 5210,
      "Ġforget": 5211,
      "Ġ600": 5212,
      "ĠDef": 5213,
      "Ġexpedition": 5214,
      "acity": 5215,
      "Ġconfirmed": 5216,
      "Ġofficially": 5217,
      "Ġtreasure": 5218,
      "olved": 5219,
      "Ġwaters": 5220,
      "Ġsources": 5221,
      "ex": 5222,
      "yan": 5223,
      "ĠWall": 5224,
      "ĠHarrison": 5225,
      "ĠSat": 5226,
      "Ġsixth": 5227,
      "Ġweight": 5228,
      "ĠPrince": 5229,
      "ĠJoseph": 5230,
      "cing": 5231,
      "heless": 5232,
      "Ġtom": 5233,
      "Ġones": 5234,
      "oday": 5235,
      "Ġpolicy": 5236,
      "Ġaffected": 5237,
      "Ġhusband": 5238,
      "Ġveget": 5239,
      "isters": 5240,
      "Ġkick": 5241,
      "Ġnegot": 5242,
      "ĠHard": 5243,
      "Ġshape": 5244,
      "ĠColon": 5245,
      "Ġinteresting": 5246,
      "Ġfired": 5247,
      "Ġlon": 5248,
      "ĠChe": 5249,
      "Ġshore": 5250,
      "ockey": 5251,
      "Ġprominent": 5252,
      "Ġwebs": 5253,
      "Ġdisappear": 5254,
      "bled": 5255,
      "Ġmis": 5256,
      "Ġfeather": 5257,
      "aling": 5258,
      "Ġeleph": 5259,
      "Ġoperated": 5260,
      "Ġphysical": 5261,
      "ĠUs": 5262,
      "Ġuniversity": 5263,
      "Ġ51": 5264,
      "Ġ85": 5265,
      "Ġproperty": 5266,
      "Ġlabel": 5267,
      "Ġfocus": 5268,
      "ĠAcademy": 5269,
      "rain": 5270,
      "ĠBus": 5271,
      "Ġactivities": 5272,
      "Ġcontrast": 5273,
      "ĠDam": 5274,
      "essions": 5275,
      "Ġreturning": 5276,
      "Ġfigures": 5277,
      "Ġinjury": 5278,
      "ĠHomer": 5279,
      "uled": 5280,
      "Ġedge": 5281,
      "sembly": 5282,
      "chest": 5283,
      "uous": 5284,
      "wise": 5285,
      "ĠGil": 5286,
      "Ġaired": 5287,
      "ĠNews": 5288,
      "ĠOxford": 5289,
      "Ġbite": 5290,
      "ilies": 5291,
      "Ġpropos": 5292,
      "Ġstrike": 5293,
      "Ġchosen": 5294,
      "Ġfairy": 5295,
      "rical": 5296,
      "Ġfiction": 5297,
      "Ġexecutive": 5298,
      "Ġwealth": 5299,
      "Ġcontemporary": 5300,
      "elve": 5301,
      "Ġinstit": 5302,
      "Ġfrequently": 5303,
      "Ġsurrender": 5304,
      "ĠPennsylvania": 5305,
      "ias": 5306,
      "Ġborder": 5307,
      "Ġfresh": 5308,
      "ĠWay": 5309,
      "incoln": 5310,
      "ĠService": 5311,
      "ĠFootball": 5312,
      "ĠIll": 5313,
      "aire": 5314,
      "ĠOcean": 5315,
      "Ġrules": 5316,
      "ãĤ": 5317,
      "resp": 5318,
      "ĠLeg": 5319,
      "ĠHurricane": 5320,
      "Sure": 5321,
      "mony": 5322,
      "Ġfaced": 5323,
      "Ġnewspaper": 5324,
      "Ġbud": 5325,
      "Ġfence": 5326,
      "mann": 5327,
      "Ġrequire": 5328,
      "ĠMiddle": 5329,
      "ĠVictoria": 5330,
      "lder": 5331,
      "Ġemph": 5332,
      "Ġcities": 5333,
      "ĠSeveral": 5334,
      "ayer": 5335,
      "Ġkg": 5336,
      "Ġapparent": 5337,
      "Ġalbums": 5338,
      "Ġmail": 5339,
      "Ġappeal": 5340,
      "Ġserving": 5341,
      "Ġsets": 5342,
      "ĠValley": 5343,
      "Be": 5344,
      "Ġut": 5345,
      "Ġformation": 5346,
      "Ġsequence": 5347,
      "Ġrow": 5348,
      "Ġattrib": 5349,
      "Ġglass": 5350,
      "Ġtries": 5351,
      "ĠGovernor": 5352,
      "Ġlit": 5353,
      "ooper": 5354,
      "Ġfully": 5355,
      "Ġlem": 5356,
      "ĠHay": 5357,
      "ustrated": 5358,
      "ĠAlb": 5359,
      "Äģ": 5360,
      "Ġmurder": 5361,
      "ĠMat": 5362,
      "ĠFe": 5363,
      "ivity": 5364,
      "ĠRegiment": 5365,
      "lease": 5366,
      "Ġcriticized": 5367,
      "Ġchoice": 5368,
      "har": 5369,
      "Ġforg": 5370,
      "Ġideas": 5371,
      "ĠChristmas": 5372,
      "Ġresults": 5373,
      "Ġprepar": 5374,
      "Ġflo": 5375,
      "Ġdegree": 5376,
      "Ġwelcome": 5377,
      "iate": 5378,
      "Ġmud": 5379,
      "Ġreports": 5380,
      "Ġtypically": 5381,
      "ĠItaly": 5382,
      "ĠEntertain": 5383,
      "teenth": 5384,
      "Ġlibr": 5385,
      "Ġreceive": 5386,
      "Ġpasses": 5387,
      "ĠJud": 5388,
      "Ġnose": 5389,
      "lam": 5390,
      "Ġsens": 5391,
      "Ġmad": 5392,
      "Ġenter": 5393,
      "Ġanalys": 5394,
      "Ġbreat": 5395,
      "Ġpoll": 5396,
      "Ġath": 5397,
      "ĠArm": 5398,
      "Ġartillery": 5399,
      "Ġorders": 5400,
      "Ġpuzz": 5401,
      "Ġnominated": 5402,
      "Ġsenior": 5403,
      "ĠWild": 5404,
      "ipe": 5405,
      "ĠConf": 5406,
      "Ġdrug": 5407,
      "Ġpatient": 5408,
      "istan": 5409,
      "Ġsailed": 5410,
      "never": 5411,
      "Ġcontained": 5412,
      "Ġdefense": 5413,
      "ĠCivil": 5414,
      "Ġversions": 5415,
      "ĠHung": 5416,
      "ĠRam": 5417,
      "Ġclosely": 5418,
      "Ġbenef": 5419,
      "Ġfought": 5420,
      "olph": 5421,
      "ĠFleet": 5422,
      "Ġreform": 5423,
      "ĠLincoln": 5424,
      "ĠCont": 5425,
      "Ġgovernor": 5426,
      "Ġcondition": 5427,
      "Ġgenus": 5428,
      "hire": 5429,
      "ĠArab": 5430,
      "ĠJimmy": 5431,
      "ĠHal": 5432,
      "ĠHead": 5433,
      "Ġrainfall": 5434,
      "Ġachieve": 5435,
      "Ġaccidentally": 5436,
      "BA": 5437,
      "otes": 5438,
      "Ġbeyond": 5439,
      "ricult": 5440,
      "Ġmaintained": 5441,
      "Ġorganization": 5442,
      "ĠAp": 5443,
      "ĠGall": 5444,
      "Ġinvasion": 5445,
      "Ġswimming": 5446,
      "ĠFinally": 5447,
      "kes": 5448,
      "ora": 5449,
      "Ġstood": 5450,
      "ashion": 5451,
      "ĠDistrict": 5452,
      "Ġwit": 5453,
      "Ġteeth": 5454,
      "Ġleaders": 5455,
      "Ġemphas": 5456,
      "Ġmedical": 5457,
      "Ġmissing": 5458,
      "Ġcapture": 5459,
      "ply": 5460,
      "oul": 5461,
      "ĠClass": 5462,
      "writ": 5463,
      "ĠCur": 5464,
      "ifying": 5465,
      "Ġcray": 5466,
      "Ġglob": 5467,
      "Ġcricket": 5468,
      "onents": 5469,
      "Ġconsisted": 5470,
      "Ġaf": 5471,
      "Ġstations": 5472,
      "Ġcrowd": 5473,
      "omb": 5474,
      "Ġmanuf": 5475,
      "ĠShow": 5476,
      "Ġmanufact": 5477,
      "Ġfederal": 5478,
      "Ġcontain": 5479,
      "ĠGuard": 5480,
      "Ġbench": 5481,
      "ĠDire": 5482,
      "Ġbrothers": 5483,
      "ĠCa": 5484,
      "ampion": 5485,
      "ĠMarsh": 5486,
      "Ġways": 5487,
      "Hi": 5488,
      "Ġnap": 5489,
      "Ġham": 5490,
      "Ġshoes": 5491,
      "Ġfinds": 5492,
      "ĠSenate": 5493,
      "Ġtorpedo": 5494,
      "Ġpin": 5495,
      "Ġconvers": 5496,
      "Ġsquadron": 5497,
      "ĠAvenue": 5498,
      "ĠFour": 5499,
      "ĠGal": 5500,
      "Ġbillion": 5501,
      "Ġadopted": 5502,
      "Ġpool": 5503,
      "ĠField": 5504,
      "ĠJones": 5505,
      "Ġabandoned": 5506,
      "ĠEntertainment": 5507,
      "Ġworth": 5508,
      "ĠBeat": 5509,
      "Ġbaseball": 5510,
      "Ġmile": 5511,
      "Ġlunch": 5512,
      "Ġstadium": 5513,
      "ĠEastern": 5514,
      "Ġ1943": 5515,
      "Ġlands": 5516,
      "ĠAdd": 5517,
      "Ġreference": 5518,
      "ev": 5519,
      "ĠSomet": 5520,
      "lying": 5521,
      "ĠCat": 5522,
      "usion": 5523,
      "Ġseg": 5524,
      "Ġquite": 5525,
      "Ġsurrounding": 5526,
      "ĠRos": 5527,
      "Ġtherefore": 5528,
      "Ġtwice": 5529,
      "Ġsoundtrack": 5530,
      "ĠSwed": 5531,
      "ĠSom": 5532,
      "Ġentr": 5533,
      "Ġrailway": 5534,
      "Ġinte": 5535,
      "Ġstep": 5536,
      "Ġcitiz": 5537,
      "Ġcomputer": 5538,
      "Ġlanded": 5539,
      "Ġroads": 5540,
      "Ã¨": 5541,
      "Ġcapacity": 5542,
      "lers": 5543,
      "rell": 5544,
      "Ġtrail": 5545,
      "Ġpainting": 5546,
      "Fin": 5547,
      "ription": 5548,
      "Ġpoem": 5549,
      "ĠFluffy": 5550,
      "Ġpossibly": 5551,
      "Ġopt": 5552,
      "Ġhistorian": 5553,
      "Ġgift": 5554,
      "Ġdepart": 5555,
      "ĠBook": 5556,
      "rael": 5557,
      "Ġshowing": 5558,
      "Ġachieved": 5559,
      "Ġsyn": 5560,
      "avalry": 5561,
      "Ġparticipated": 5562,
      "war": 5563,
      "Ġopposed": 5564,
      "ĠDi": 5565,
      "ĠBecause": 5566,
      "amber": 5567,
      "Ġnewly": 5568,
      "Ġsingles": 5569,
      "Ġbusy": 5570,
      "ĠStephen": 5571,
      "Ġphilos": 5572,
      "rick": 5573,
      "oration": 5574,
      "verse": 5575,
      "Ġtouchdown": 5576,
      "Ġindividuals": 5577,
      "AT": 5578,
      "acement": 5579,
      "Ġcalls": 5580,
      "iverpool": 5581,
      "Ġsimply": 5582,
      "Ġhonor": 5583,
      "Ġcert": 5584,
      "Ġcomfort": 5585,
      "Ġreign": 5586,
      "Ġmaster": 5587,
      "Ġplate": 5588,
      "ĠOs": 5589,
      "Ġsports": 5590,
      "Ġagg": 5591,
      "ĠAlbert": 5592,
      "Ġcreation": 5593,
      "Ġ1986": 5594,
      "Ġkilling": 5595,
      "owing": 5596,
      "itty": 5597,
      "Why": 5598,
      "ĠMolly": 5599,
      "Ġinvited": 5600,
      "Ġvocals": 5601,
      "Ġtrouble": 5602,
      "Ġblanket": 5603,
      "Ġnoises": 5604,
      "Ġfrag": 5605,
      "ĠEach": 5606,
      "Ġnative": 5607,
      "Ġexplos": 5608,
      "Ġlaws": 5609,
      "Ġsort": 5610,
      "ĠTech": 5611,
      "ĠFar": 5612,
      "Ġinstrument": 5613,
      "Ġnuclear": 5614,
      "ented": 5615,
      "ental": 5616,
      "Ġaccompan": 5617,
      "Ġ95": 5618,
      "Ġrequest": 5619,
      "ushing": 5620,
      "Ġperman": 5621,
      "Ġ56": 5622,
      "Ġregarded": 5623,
      "iro": 5624,
      "ĠSund": 5625,
      "uts": 5626,
      "Ġopin": 5627,
      "Ġtrav": 5628,
      "Ã¤": 5629,
      "Ġ1987": 5630,
      "Ġrival": 5631,
      "body": 5632,
      "ĠSystem": 5633,
      "Ġrot": 5634,
      "Ġelement": 5635,
      "Ġeggs": 5636,
      "Ġmentioned": 5637,
      "Ġsell": 5638,
      "Ġrisk": 5639,
      "Ġchance": 5640,
      "raid": 5641,
      "Ġrecognized": 5642,
      "Ġbottom": 5643,
      "ĠForm": 5644,
      "Ġ1989": 5645,
      "Ġspeak": 5646,
      "Ġpiano": 5647,
      "ĠVol": 5648,
      "Ġlegs": 5649,
      "lusion": 5650,
      "Ġnegative": 5651,
      "ighted": 5652,
      "Ġacquired": 5653,
      "Ġpocket": 5654,
      "ĠPop": 5655,
      "Ġfamilies": 5656,
      "Ġadvant": 5657,
      "Ġbasis": 5658,
      "Ġdraft": 5659,
      "ĠDie": 5660,
      "Ġvac": 5661,
      "imens": 5662,
      "ĠGirl": 5663,
      "Ġextend": 5664,
      "Ġextensive": 5665,
      "Ġtreatment": 5666,
      "Ġnarrow": 5667,
      "emic": 5668,
      "kins": 5669,
      "Ġlad": 5670,
      "una": 5671,
      "Ġspect": 5672,
      "ĠWeek": 5673,
      "Ġparalle": 5674,
      "Ġadministration": 5675,
      "oli": 5676,
      "Ġfinding": 5677,
      "Ġphone": 5678,
      "Ġlonely": 5679,
      "TC": 5680,
      "Ġsport": 5681,
      "ĠIsrael": 5682,
      "Ġadvanced": 5683,
      "Ġdisease": 5684,
      "ĠFantasy": 5685,
      "umes": 5686,
      "Ġappearances": 5687,
      "Ġdebuted": 5688,
      "Ġrelieved": 5689,
      "Ġends": 5690,
      "Ġdriving": 5691,
      "mark": 5692,
      "Ġgranted": 5693,
      "ĠRome": 5694,
      "Ġ62": 5695,
      "Ġswings": 5696,
      "Ġtim": 5697,
      "Ġ66": 5698,
      "Ġtalking": 5699,
      "isers": 5700,
      "Ġexerc": 5701,
      "ba": 5702,
      "Ġfaces": 5703,
      "leton": 5704,
      "Ġcreating": 5705,
      "Ġimproved": 5706,
      "Ġincident": 5707,
      "Ġdistrict": 5708,
      "ĠOlympic": 5709,
      "ĠRose": 5710,
      "Ġclaims": 5711,
      "Ġauthorities": 5712,
      "Ġ177": 5713,
      "ĠRhodes": 5714,
      "Ġtiny": 5715,
      "hell": 5716,
      "Ġtouc": 5717,
      "Ġpitch": 5718,
      "Ġworkers": 5719,
      "Ġnarr": 5720,
      "ĠGulf": 5721,
      "Ġsmooth": 5722,
      "ickets": 5723,
      "Ġ54": 5724,
      "yon": 5725,
      "enger": 5726,
      "arked": 5727,
      "Ġheight": 5728,
      "aving": 5729,
      "Ġexploring": 5730,
      "ĠEmma": 5731,
      "ĠÎ": 5732,
      "onent": 5733,
      "Ġhabit": 5734,
      "Ġstarts": 5735,
      "Ġlaunch": 5736,
      "Ġpowers": 5737,
      "etts": 5738,
      "ĠLes": 5739,
      "Ġ53": 5740,
      "ĠCoast": 5741,
      "Ġbriefly": 5742,
      "ĠBart": 5743,
      "ĠLiverpool": 5744,
      "Ġconsecutive": 5745,
      "Ġcolumn": 5746,
      "Ġsteel": 5747,
      "Ġunusual": 5748,
      "time": 5749,
      "anwhile": 5750,
      "illing": 5751,
      "ĠAlbum": 5752,
      "Ġdefend": 5753,
      "ĠAllied": 5754,
      "Ġexperiment": 5755,
      "haps": 5756,
      "inem": 5757,
      "Ġmanagement": 5758,
      "Ġdemand": 5759,
      "aki": 5760,
      "Ġtwelve": 5761,
      "Ġdefin": 5762,
      "Ġprogress": 5763,
      "ĠMountain": 5764,
      "ĠLife": 5765,
      "Ġworldwide": 5766,
      "ĠBefore": 5767,
      "Ġplatform": 5768,
      "80": 5769,
      "Mia": 5770,
      "Later": 5771,
      "Ġcrown": 5772,
      "ĠLiber": 5773,
      "Ġexpress": 5774,
      "Ġexpansion": 5775,
      "Ġpromise": 5776,
      "Ġsoup": 5777,
      "Ġauthority": 5778,
      "Ġrepeated": 5779,
      "ĠCome": 5780,
      "Ġscar": 5781,
      "Ġnecessary": 5782,
      "Ġcontact": 5783,
      "Ġinterchange": 5784,
      "ĠDev": 5785,
      "Ġtaught": 5786,
      "Ġ800": 5787,
      "Ġcoins": 5788,
      "ĠRepublican": 5789,
      "Ġcarrying": 5790,
      "ĠMod": 5791,
      "pty": 5792,
      "Ġsuggests": 5793,
      "Ġcrossing": 5794,
      "ĠTop": 5795,
      "Ġtrust": 5796,
      "Ġsteam": 5797,
      "ĠDuke": 5798,
      "tle": 5799,
      "Ġwounded": 5800,
      "Ġcore": 5801,
      "Ġdeploy": 5802,
      "Ġfellow": 5803,
      "Ġproducers": 5804,
      "Ġbrief": 5805,
      "Although": 5806,
      "Ġconce": 5807,
      "ĠBoard": 5808,
      "Ġscientific": 5809,
      "isf": 5810,
      "Ġrom": 5811,
      "Ġrich": 5812,
      "ĠBurn": 5813,
      "Ġdrawing": 5814,
      "With": 5815,
      "Ġton": 5816,
      "Ġbodies": 5817,
      "Ġrise": 5818,
      "ĠWhe": 5819,
      "apore": 5820,
      "Ġsolo": 5821,
      "mosp": 5822,
      "wich": 5823,
      "Ġfashion": 5824,
      "Ġ1988": 5825,
      "ĠSecretary": 5826,
      "keep": 5827,
      "Ġ97": 5828,
      "Ġmedal": 5829,
      "Ġcreative": 5830,
      "li": 5831,
      "ala": 5832,
      "iday": 5833,
      "eler": 5834,
      "Ġadapt": 5835,
      "Ġevac": 5836,
      "Ġeasy": 5837,
      "Ġflooding": 5838,
      "then": 5839,
      "ĠJon": 5840,
      "ĠNH": 5841,
      "Ġretired": 5842,
      "Ġhistorical": 5843,
      "Following": 5844,
      "Ġcamera": 5845,
      "ĠRog": 5846,
      "ĠSpain": 5847,
      "Ġsuccessfully": 5848,
      "Ġvan": 5849,
      "Ġ120": 5850,
      "Sp": 5851,
      "ĠHolly": 5852,
      "gest": 5853,
      "Ġrecently": 5854,
      "ini": 5855,
      "Ġclapped": 5856,
      "Ġdescribes": 5857,
      "met": 5858,
      "aughty": 5859,
      "Ġconduct": 5860,
      "ĠExp": 5861,
      "load": 5862,
      "Ġarrival": 5863,
      "osaurus": 5864,
      "Ġsomew": 5865,
      "ications": 5866,
      "ocated": 5867,
      "Ġpush": 5868,
      "Ġdepend": 5869,
      "Ġneeds": 5870,
      "ĠSingapore": 5871,
      "aylor": 5872,
      "Ġwhist": 5873,
      "Ġappl": 5874,
      "Ġknowledge": 5875,
      "Ġheaded": 5876,
      "Ġshapes": 5877,
      "ĠMain": 5878,
      "Ġgets": 5879,
      "Ġmilk": 5880,
      "Ġbread": 5881,
      "Ġfixed": 5882,
      "Ġbattery": 5883,
      "Ġwise": 5884,
      "Ġboun": 5885,
      "Ġalt": 5886,
      "Ġarmed": 5887,
      "Ġwaiting": 5888,
      "ĠDaddy": 5889,
      "Ġwebsite": 5890,
      "Ġseventh": 5891,
      "Ġcheered": 5892,
      "Ġsymbol": 5893,
      "ĠPers": 5894,
      "Ġ76": 5895,
      "Ġclouds": 5896,
      "nedy": 5897,
      "ĠCastle": 5898,
      "Ġafraid": 5899,
      "hens": 5900,
      "Ġmole": 5901,
      "Ġunderst": 5902,
      "Ġseek": 5903,
      "Ġfine": 5904,
      "Ġrejected": 5905,
      "Ġ1939": 5906,
      "ĠHarry": 5907,
      "Ġcouncil": 5908,
      "owed": 5909,
      "Ġ57": 5910,
      "Ġcenturies": 5911,
      "Ġhousehold": 5912,
      "ĠSteve": 5913,
      "adelph": 5914,
      "ĠMir": 5915,
      "ĠBush": 5916,
      "Ġcommonly": 5917,
      "Ġmessage": 5918,
      "ĠRailway": 5919,
      "ĠJewish": 5920,
      "Ġpurpose": 5921,
      "Ġskin": 5922,
      "yth": 5923,
      "Ġdata": 5924,
      "ĠAv": 5925,
      "ĠUN": 5926,
      "Ġfailure": 5927,
      "Ġshut": 5928,
      "Ġadvert": 5929,
      "Ġcontrolled": 5930,
      "mit": 5931,
      "stone": 5932,
      "ura": 5933,
      "istics": 5934,
      "ĠThough": 5935,
      "ĠProv": 5936,
      "Ġsear": 5937,
      "ĠGro": 5938,
      "Ġpros": 5939,
      "Ġheadquarters": 5940,
      "onym": 5941,
      "Ġcabin": 5942,
      "Ġpsych": 5943,
      "Ġroles": 5944,
      "Ġsimple": 5945,
      "utation": 5946,
      "unte": 5947,
      "ĠCommon": 5948,
      "imal": 5949,
      "Ġjar": 5950,
      "Ġliterature": 5951,
      "Finally": 5952,
      "ĠSy": 5953,
      "ĠBru": 5954,
      "ownt": 5955,
      "Ġeffective": 5956,
      "ĠPhiladelph": 5957,
      "Ġdismiss": 5958,
      "ĠHistor": 5959,
      "atures": 5960,
      "Ġdepth": 5961,
      "Ġlanding": 5962,
      "ĠConference": 5963,
      "ĠGovernment": 5964,
      "zil": 5965,
      "Ġdyn": 5966,
      "Ġrear": 5967,
      "Ġcontributed": 5968,
      "ĠScottish": 5969,
      "hus": 5970,
      "pa": 5971,
      "ĠCub": 5972,
      "ulate": 5973,
      "Ġprem": 5974,
      "Ġdefined": 5975,
      "ĠConn": 5976,
      "Lila": 5977,
      "roc": 5978,
      "otic": 5979,
      "ĠIslands": 5980,
      "Ġcommissioned": 5981,
      "Ġhell": 5982,
      "ĠBrian": 5983,
      "Ġknee": 5984,
      "Ġswam": 5985,
      "Ġcollected": 5986,
      "burgh": 5987,
      "Ġwaves": 5988,
      "Ġloyal": 5989,
      "Ġmob": 5990,
      "Ġsevere": 5991,
      "Ġtitles": 5992,
      "ĠJes": 5993,
      "Ġexpanded": 5994,
      "Ġquestions": 5995,
      "ĠCD": 5996,
      "Ġdrama": 5997,
      "Ġmount": 5998,
      "osa": 5999,
      "Ġcontaining": 6000,
      "Ġfilming": 6001,
      "Ġprotected": 6002,
      "ĠWater": 6003,
      "ibr": 6004,
      "Ġgray": 6005,
      "Ġprepared": 6006,
      "Ã¸": 6007,
      "Ġfirm": 6008,
      "essed": 6009,
      "fully": 6010,
      "Ġopposition": 6011,
      "oons": 6012,
      "Ġcave": 6013,
      "Ġrac": 6014,
      "pton": 6015,
      "Ġ1985": 6016,
      "gent": 6017,
      "uate": 6018,
      "ographer": 6019,
      "Ġescap": 6020,
      "rane": 6021,
      "itled": 6022,
      "ĠJac": 6023,
      "Ġexperienced": 6024,
      "Ġcasual": 6025,
      "ĠPhiladelphia": 6026,
      "Ġtie": 6027,
      "heim": 6028,
      "ĠOperation": 6029,
      "igr": 6030,
      "ĠBre": 6031,
      "Ġconference": 6032,
      "Ġhugs": 6033,
      "Ġuncle": 6034,
      "Ġbudget": 6035,
      "ĠSR": 6036,
      "ĠLew": 6037,
      "inth": 6038,
      "ipl": 6039,
      "Ġentirely": 6040,
      "Ġpill": 6041,
      "ĠIS": 6042,
      "Ġbackyard": 6043,
      "attle": 6044,
      "uccess": 6045,
      "Ġque": 6046,
      "Ġsafety": 6047,
      "Ġbass": 6048,
      "ĠHome": 6049,
      "ĠOf": 6050,
      "Ġcomic": 6051,
      "Ġchor": 6052,
      "ĠInside": 6053,
      "Ġprice": 6054,
      "ipping": 6055,
      "see": 6056,
      "Ġburied": 6057,
      "iments": 6058,
      "Ġcomedy": 6059,
      "Ġboys": 6060,
      "Ġreflect": 6061,
      "Ġeasily": 6062,
      "Ġscheduled": 6063,
      "Ġwore": 6064,
      "ordan": 6065,
      "Ġtorn": 6066,
      "ran": 6067,
      "ware": 6068,
      "ĠSa": 6069,
      "Ġnaughty": 6070,
      "ĠPak": 6071,
      "Ġrepair": 6072,
      "ĠOlympics": 6073,
      "ĠPre": 6074,
      "ĠGerm": 6075,
      "ĠThrough": 6076,
      "Ġdecre": 6077,
      "Ġdiscover": 6078,
      "Ġforever": 6079,
      "Ġcrossed": 6080,
      "anger": 6081,
      "Ġyounger": 6082,
      "ĠCarey": 6083,
      "ĠStorm": 6084,
      "Ġapple": 6085,
      "Ġextrem": 6086,
      "ĠKennedy": 6087,
      "ĠColumbia": 6088,
      "Ġbucket": 6089,
      "vis": 6090,
      "Ġaim": 6091,
      "Ġinhab": 6092,
      "Ġgain": 6093,
      "ĠKim": 6094,
      "Ġrank": 6095,
      "Ġdedicated": 6096,
      "Ġelephant": 6097,
      "ĠBan": 6098,
      "ĠInstitute": 6099,
      "Ġspeech": 6100,
      "Ġreading": 6101,
      "Ġfreeway": 6102,
      "iences": 6103,
      "imet": 6104,
      "ĠRay": 6105,
      "estic": 6106,
      "ocol": 6107,
      "Ġexciting": 6108,
      "Ġcriticism": 6109,
      "respond": 6110,
      "rect": 6111,
      "ĠVen": 6112,
      "ss": 6113,
      "ĠWind": 6114,
      "Ġrelief": 6115,
      "Ġkilometres": 6116,
      "icine": 6117,
      "ĠTurn": 6118,
      "Ġcoat": 6119,
      "Ġmonkey": 6120,
      "ĠCambridge": 6121,
      "Ġparallel": 6122,
      "like": 6123,
      "Ġx": 6124,
      "Ġpurple": 6125,
      "Ġlosses": 6126,
      "Ġdial": 6127,
      "Ġlocations": 6128,
      "ĠAndy": 6129,
      "ĠPrime": 6130,
      "Ġtemperature": 6131,
      "Ġsecurity": 6132,
      "Ġactors": 6133,
      "Ġapproached": 6134,
      "orters": 6135,
      "ads": 6136,
      "ĠLind": 6137,
      "Ġatmosp": 6138,
      "Ġunf": 6139,
      "Ġwithdraw": 6140,
      "Ġtied": 6141,
      "ĠHMS": 6142,
      "Ġvisual": 6143,
      "Ġeth": 6144,
      "ĠPress": 6145,
      "Ġheads": 6146,
      "Ġbattalion": 6147,
      "ĠBarb": 6148,
      "Ġcultural": 6149,
      "Ġdrawn": 6150,
      "Ġ99": 6151,
      "Ġstring": 6152,
      "Ġadvantage": 6153,
      "And": 6154,
      "Ġshall": 6155,
      "Ġapplic": 6156,
      "Ġregions": 6157,
      "ĠCommand": 6158,
      "Ġviewed": 6159,
      "ophy": 6160,
      "Ġhidden": 6161,
      "inity": 6162,
      "ih": 6163,
      "ĠSub": 6164,
      "Ġexact": 6165,
      "abeth": 6166,
      "Ġrecru": 6167,
      "Ġislands": 6168,
      "Ġkingdom": 6169,
      "Ġeconomy": 6170,
      "Ġexisting": 6171,
      "ĠBrazil": 6172,
      "Ġhits": 6173,
      "ĠSound": 6174,
      "Ġnick": 6175,
      "Ġ1971": 6176,
      "Ġathlet": 6177,
      "Ġvote": 6178,
      "iy": 6179,
      "vest": 6180,
      "Ġshook": 6181,
      "Ġinteract": 6182,
      "Ġimpressed": 6183,
      "Ġ1984": 6184,
      "Ġfalls": 6185,
      "Ġvolcan": 6186,
      "Ġtaste": 6187,
      "era": 6188,
      "Ġven": 6189,
      "Ġdete": 6190,
      "iana": 6191,
      "Ġexpensive": 6192,
      "ĠLine": 6193,
      "Ġarc": 6194,
      "Ġacad": 6195,
      "ĠAnderson": 6196,
      "ĠStudios": 6197,
      "ĠMurray": 6198,
      "eed": 6199,
      "Ġawards": 6200,
      "ĠHum": 6201,
      "tendo": 6202,
      "ĠIndones": 6203,
      "Ġ1964": 6204,
      "ĠGeorg": 6205,
      "vely": 6206,
      "ĠWars": 6207,
      "Ġbelief": 6208,
      "Ġbush": 6209,
      "rat": 6210,
      "Ġurban": 6211,
      "Ġmart": 6212,
      "Ġprovides": 6213,
      "Ġvolume": 6214,
      "Ġtechnology": 6215,
      "ĠDaniel": 6216,
      "Ġwal": 6217,
      "ĠEliz": 6218,
      "Ġdeclined": 6219,
      "Ġanswer": 6220,
      "Ġceremony": 6221,
      "Ġmap": 6222,
      "ĠPit": 6223,
      "Ġcontest": 6224,
      "Ġperforming": 6225,
      "Ġsites": 6226,
      "Ġaccompanied": 6227,
      "tion": 6228,
      "Ġwag": 6229,
      "amm": 6230,
      "ĠHind": 6231,
      "Ġbee": 6232,
      "iform": 6233,
      "Ġrose": 6234,
      "Ġresour": 6235,
      "Ġpow": 6236,
      "ĠMen": 6237,
      "ective": 6238,
      "Ġwrites": 6239,
      "Ġproviding": 6240,
      "ĠNintendo": 6241,
      "Ġanalysis": 6242,
      "owntown": 6243,
      "Ġmir": 6244,
      "ĠToday": 6245,
      "ĠTaylor": 6246,
      "aka": 6247,
      "Ġadult": 6248,
      "Ġtypes": 6249,
      "ĠPeople": 6250,
      "Ġsac": 6251,
      "Ġwoke": 6252,
      "Ġcra": 6253,
      "acted": 6254,
      "ĠDet": 6255,
      "Ġfilmed": 6256,
      "Ġlearning": 6257,
      "ĠSummer": 6258,
      "Ġ72": 6259,
      "ĠAsia": 6260,
      "Ġcheese": 6261,
      "ĠNorman": 6262,
      "aga": 6263,
      "Ġbutton": 6264,
      "Ġinfantry": 6265,
      "Ġintensity": 6266,
      "ĠKentucky": 6267,
      "ĠOhio": 6268,
      "ĠSk": 6269,
      "Ġasking": 6270,
      "Ġarticle": 6271,
      "Ġshooting": 6272,
      "ĠFurther": 6273,
      "Ġsemi": 6274,
      "Ġoffensive": 6275,
      "Ġ67": 6276,
      "Ã¡n": 6277,
      "Ġpage": 6278,
      "ĠLive": 6279,
      "ĠFestival": 6280,
      "Ġstructures": 6281,
      "Ġindustrial": 6282,
      "ĠMas": 6283,
      "Ġupgr": 6284,
      "Ġenl": 6285,
      "Ġsecondary": 6286,
      "ĠShort": 6287,
      "Ġ1918": 6288,
      "Ġconvoy": 6289,
      "worth": 6290,
      "ĠNight": 6291,
      "Ġcorrespond": 6292,
      "ĠInstead": 6293,
      "water": 6294,
      "Ġholds": 6295,
      "Ġconnected": 6296,
      "igation": 6297,
      "ĠRa": 6298,
      "Ġ1975": 6299,
      "ĠColor": 6300,
      "Ġsupporting": 6301,
      "ĠRevolution": 6302,
      "iations": 6303,
      "Ġresident": 6304,
      "ologist": 6305,
      "Ġ1968": 6306,
      "Ġjuice": 6307,
      "usc": 6308,
      "achus": 6309,
      "Ġevening": 6310,
      "Ġdistingu": 6311,
      "ĠAddition": 6312,
      "Ġtalked": 6313,
      "Ġengaged": 6314,
      "Ġfacilities": 6315,
      "Ġvehicle": 6316,
      "Ġaid": 6317,
      "aring": 6318,
      "ĠAndrew": 6319,
      "Ġtransform": 6320,
      "gency": 6321,
      "omic": 6322,
      "iration": 6323,
      "phone": 6324,
      "Ġremind": 6325,
      "ĠAsh": 6326,
      "Ġdefensive": 6327,
      "shire": 6328,
      "Ġwondered": 6329,
      "Ġrebu": 6330,
      "Ġagricult": 6331,
      "Ġfocused": 6332,
      "Of": 6333,
      "essor": 6334,
      "ĠThank": 6335,
      "Ġrocket": 6336,
      "Ġmethod": 6337,
      "Ġmounted": 6338,
      "Ġlose": 6339,
      "ixon": 6340,
      "Ġleadership": 6341,
      "Ġroughly": 6342,
      "Ġtouched": 6343,
      "Ġfold": 6344,
      "ĠCrit": 6345,
      "rif": 6346,
      "Ġ1974": 6347,
      "Ġmerch": 6348,
      "Ġhealthy": 6349,
      "Ġsucceeded": 6350,
      "ĠHon": 6351,
      "Ġdeck": 6352,
      "Ġputs": 6353,
      "Ġmotion": 6354,
      "aran": 6355,
      "ittens": 6356,
      "Ġthemes": 6357,
      "Ġcommittee": 6358,
      "Ġturning": 6359,
      "achel": 6360,
      "ĠMot": 6361,
      "ĠTam": 6362,
      "Ġgate": 6363,
      "Ġisol": 6364,
      "Ġconfused": 6365,
      "Ġ1914": 6366,
      "ylan": 6367,
      "standing": 6368,
      "Ġreceiving": 6369,
      "Ġsignificantly": 6370,
      "ĠAlexander": 6371,
      "ĠTropical": 6372,
      "Ġoccupied": 6373,
      "orough": 6374,
      "Ġneut": 6375,
      "Ġmoon": 6376,
      "ĠVietnam": 6377,
      "Ġtask": 6378,
      "Ġhoney": 6379,
      "Ġleaf": 6380,
      "RA": 6381,
      "Ġknocked": 6382,
      "Ġperhaps": 6383,
      "Ġsoutheast": 6384,
      "ario": 6385,
      "Ġhyp": 6386,
      "Ġhappen": 6387,
      "Ġtowns": 6388,
      "Ġlaughing": 6389,
      "ĠFam": 6390,
      "Ġ61": 6391,
      "Ġrenamed": 6392,
      "ĠColonel": 6393,
      "Ġcraw": 6394,
      "ĠDream": 6395,
      "Ġ1969": 6396,
      "Ġreplace": 6397,
      "eral": 6398,
      "ĠâĪ": 6399,
      "Ġintroduction": 6400,
      "Ġlibrary": 6401,
      "rets": 6402,
      "ĠIV": 6403,
      "Ġviews": 6404,
      "Ġpurchased": 6405,
      "ĠPost": 6406,
      "ordin": 6407,
      "Ġ1972": 6408,
      "Ġ1973": 6409,
      "Ġconverted": 6410,
      "yph": 6411,
      "iants": 6412,
      "Ġtrains": 6413,
      "Ġtunnel": 6414,
      "Ġopportunity": 6415,
      "achusetts": 6416,
      "ĠAlso": 6417,
      "Ġrestaur": 6418,
      "Ġhumans": 6419,
      "Ġfields": 6420,
      "Ġlimit": 6421,
      "Ġshaped": 6422,
      "ĠBowl": 6423,
      "ĠJun": 6424,
      "Ġmoder": 6425,
      "ĠMaryland": 6426,
      "Ġdelivered": 6427,
      "ĠBank": 6428,
      "Ġadding": 6429,
      "Ġdeveloping": 6430,
      "Ġincreasingly": 6431,
      "ras": 6432,
      "Ġswe": 6433,
      "Ġbelt": 6434,
      "ults": 6435,
      "Ġundert": 6436,
      "Ġfranch": 6437,
      "shine": 6438,
      "Ġcalc": 6439,
      "ĠMassachusetts": 6440,
      "Ġboss": 6441,
      "Ġcute": 6442,
      "stream": 6443,
      "ĠBas": 6444,
      "ĠYour": 6445,
      "Ġbiggest": 6446,
      "ĠRussia": 6447,
      "ĠPublic": 6448,
      "ĠRoss": 6449,
      "Ġrope": 6450,
      "Ġempty": 6451,
      "ĠGrandma": 6452,
      "Ġaer": 6453,
      "Ġfict": 6454,
      "Ġhired": 6455,
      "Ġsettled": 6456,
      "Ġautom": 6457,
      "ĠSpecial": 6458,
      "ti": 6459,
      "veland": 6460,
      "aws": 6461,
      "ĠWho": 6462,
      "Ġ160": 6463,
      "Ġinjured": 6464,
      "ĠOffice": 6465,
      "Bob": 6466,
      "Ġ94": 6467,
      "Ġdefence": 6468,
      "Ġ1967": 6469,
      "Ġzoo": 6470,
      "Ġrainbow": 6471,
      "asts": 6472,
      "Ġunderstood": 6473,
      "bound": 6474,
      "break": 6475,
      "ĠBa": 6476,
      "Ġeditor": 6477,
      "Ġpainted": 6478,
      "Ġinvolve": 6479,
      "Ġbalance": 6480,
      "ĠGermans": 6481,
      "Le": 6482,
      "PA": 6483,
      "icked": 6484,
      "ima": 6485,
      "Ġkid": 6486,
      "Ġkite": 6487,
      "Ġ73": 6488,
      "Ġmarch": 6489,
      "ova": 6490,
      "Ġelimin": 6491,
      "Ġdiscovery": 6492,
      "Ġtend": 6493,
      "ĠJordan": 6494,
      "ĠNever": 6495,
      "Ġ700": 6496,
      "ĠOnce": 6497,
      "For": 6498,
      "ĠWW": 6499,
      "Ġorchest": 6500,
      "rupt": 6501,
      "Ġmilit": 6502,
      "Ġapart": 6503,
      "Ġgrown": 6504,
      "Ġitems": 6505,
      "ĠDark": 6506,
      "ĠNorway": 6507,
      "Ġentrance": 6508,
      "ĠMah": 6509,
      "Ġplanning": 6510,
      "Ġopera": 6511,
      "Ġrescue": 6512,
      "ĠCard": 6513,
      "Ġstages": 6514,
      "Ġgameplay": 6515,
      "Ġprotection": 6516,
      "Ġdancing": 6517,
      "Ġgross": 6518,
      "uls": 6519,
      "Ġsearched": 6520,
      "ĠSyd": 6521,
      "Ġflat": 6522,
      "Ġ250": 6523,
      "jan": 6524,
      "Ġflash": 6525,
      "Ġ1946": 6526,
      "Ġlandfall": 6527,
      "stitution": 6528,
      "ĠUpon": 6529,
      "Ġactress": 6530,
      "ĠOnly": 6531,
      "Ġrapidly": 6532,
      "pson": 6533,
      "Ġlock": 6534,
      "ĠTenn": 6535,
      "Ġsupposed": 6536,
      "Ġpublication": 6537,
      "ĠTogether": 6538,
      "amin": 6539,
      "ĠElect": 6540,
      "osl": 6541,
      "Ġconsists": 6542,
      "bro": 6543,
      "ete": 6544,
      "ĠGreg": 6545,
      "Ġ1948": 6546,
      "Ġimportance": 6547,
      "Ġbreeding": 6548,
      "ĠBos": 6549,
      "agan": 6550,
      "Ġ69": 6551,
      "okes": 6552,
      "Ġselection": 6553,
      "Ġgall": 6554,
      "Ġsubstant": 6555,
      "Ġseems": 6556,
      "zen": 6557,
      "eless": 6558,
      "Ġune": 6559,
      "Ġsaved": 6560,
      "Ġnotable": 6561,
      "Ġ63": 6562,
      "Ġcurrently": 6563,
      "Ġregarding": 6564,
      "Ġcitizens": 6565,
      "ĠBall": 6566,
      "olt": 6567,
      "Ġ1982": 6568,
      "Ġ1917": 6569,
      "ira": 6570,
      "Ġconve": 6571,
      "Ġsubmar": 6572,
      "Ġclever": 6573,
      "Ġreasons": 6574,
      "Ġconsequ": 6575,
      "Ġproceed": 6576,
      "ĠChart": 6577,
      "Ġstudied": 6578,
      "Ġtea": 6579,
      "Ġengines": 6580,
      "ĠLar": 6581,
      "Ġ1965": 6582,
      "Ġfalling": 6583,
      "Ġcells": 6584,
      "rad": 6585,
      "ĠTen": 6586,
      "ĠMu": 6587,
      "Ġshark": 6588,
      "Ġsunny": 6589,
      "Ġwheel": 6590,
      "ĠBroad": 6591,
      "Ġembarr": 6592,
      "Ġsecure": 6593,
      "istered": 6594,
      "ĠPolish": 6595,
      "Ġstrengthen": 6596,
      "rete": 6597,
      "ĠDylan": 6598,
      "Ġrolled": 6599,
      "Ġarranged": 6600,
      "Ġsupplies": 6601,
      "Ġing": 6602,
      "Ġbell": 6603,
      "ĠLady": 6604,
      "Ġloves": 6605,
      "Ġ178": 6606,
      "Ġoccas": 6607,
      "Ġjoint": 6608,
      "Ġsnake": 6609,
      "ĠOrigin": 6610,
      "aters": 6611,
      "Ġlabor": 6612,
      "idges": 6613,
      "ĠJour": 6614,
      "Ġharm": 6615,
      "Ġdaily": 6616,
      "Ġcheck": 6617,
      "Ġearliest": 6618,
      "Ġrecommended": 6619,
      "ĠMos": 6620,
      "Ġpersonnel": 6621,
      "ĠGib": 6622,
      "Ġcharts": 6623,
      "Ġ#": 6624,
      "omy": 6625,
      "unicip": 6626,
      "eller": 6627,
      "ĠWalter": 6628,
      "Do": 6629,
      "Ġlb": 6630,
      "opher": 6631,
      "FL": 6632,
      "Ġsession": 6633,
      "ĠLieutenant": 6634,
      "Ġ59": 6635,
      "Ġallows": 6636,
      "rons": 6637,
      "ĠHere": 6638,
      "ĠCorn": 6639,
      "ĠBal": 6640,
      "ĠPoint": 6641,
      "Ġcredited": 6642,
      "Ġwitness": 6643,
      "friend": 6644,
      "Ġcircum": 6645,
      "agonist": 6646,
      "Ġ1916": 6647,
      "Ġunsuccess": 6648,
      "ua": 6649,
      "ĠUt": 6650,
      "Ġacid": 6651,
      "Ġwinner": 6652,
      "Ġbottle": 6653,
      "ĠSunday": 6654,
      "Ġpir": 6655,
      "ĠCra": 6656,
      "Ġ1947": 6657,
      "Ġgradually": 6658,
      "Ġaware": 6659,
      "GN": 6660,
      "ĠJr": 6661,
      "Ġindicated": 6662,
      "ographic": 6663,
      "Ġexistence": 6664,
      "ĠCleveland": 6665,
      "ighed": 6666,
      "ĠCape": 6667,
      "Ġchick": 6668,
      "Ġunivers": 6669,
      "Ġdesigns": 6670,
      "ranean": 6671,
      "inal": 6672,
      "ĠLo": 6673,
      "Ġdogs": 6674,
      "Ġapproved": 6675,
      "engers": 6676,
      "reedom": 6677,
      "ĠEarl": 6678,
      "Ġemployed": 6679,
      "mitted": 6680,
      "Ġspoke": 6681,
      "Ġassault": 6682,
      "ĠJohnny": 6683,
      "Ġsurvived": 6684,
      "Ġlucky": 6685,
      "Ġtele": 6686,
      "Ġretire": 6687,
      "Ġtag": 6688,
      "Ġelder": 6689,
      "ĠProd": 6690,
      "Ġprojects": 6691,
      "ymp": 6692,
      "Ġprograms": 6693,
      "Ġproducing": 6694,
      "ĠIndiana": 6695,
      "ĠMissou": 6696,
      "ĠImperial": 6697,
      "western": 6698,
      "Ġrated": 6699,
      "Ġ175": 6700,
      "Ġ1976": 6701,
      "Ġ1956": 6702,
      "Ġproducts": 6703,
      "Ġdetails": 6704,
      "Ġopinion": 6705,
      "According": 6706,
      "Ġtransfer": 6707,
      "appy": 6708,
      "Ġsettlement": 6709,
      "ĠElizabeth": 6710,
      "ĠSand": 6711,
      "Ġplayoff": 6712,
      "ĠStand": 6713,
      "Ġhanded": 6714,
      "Ġcalm": 6715,
      "Ġske": 6716,
      "ĠMario": 6717,
      "Ġentertain": 6718,
      "ĠIndust": 6719,
      "lan": 6720,
      "uan": 6721,
      "Ġcited": 6722,
      "ĠBern": 6723,
      "Ġsustained": 6724,
      "Ġchallenge": 6725,
      "ĠBalt": 6726,
      "unc": 6727,
      "ja": 6728,
      "Ġhotel": 6729,
      "Ġcreature": 6730,
      "Ġconstitution": 6731,
      "itors": 6732,
      "Ġwooden": 6733,
      "Ġresponded": 6734,
      "Ġlying": 6735,
      "Ġ1953": 6736,
      "Ġdoesn": 6737,
      "ĠSimpson": 6738,
      "eer": 6739,
      "ĠNations": 6740,
      "Ġago": 6741,
      "Ġsharing": 6742,
      "Ġonline": 6743,
      "akers": 6744,
      "Ġliber": 6745,
      "Ġ1979": 6746,
      "ĠSydney": 6747,
      "Ġhiding": 6748,
      "acter": 6749,
      "aph": 6750,
      "Ġentitled": 6751,
      "ĠAmong": 6752,
      "Ġreligion": 6753,
      "Ġsouthwest": 6754,
      "ĠFeder": 6755,
      "ventually": 6756,
      "Ġ1966": 6757,
      "Ġstoryline": 6758,
      "Ġsunshine": 6759,
      "Ġadvice": 6760,
      "ĠAbout": 6761,
      "ĠJean": 6762,
      "ĠBul": 6763,
      "Ġchoose": 6764,
      "ĠSammy": 6765,
      "Ġchest": 6766,
      "ycle": 6767,
      "BS": 6768,
      "aly": 6769,
      "Ġ77": 6770,
      "Ġ87": 6771,
      "Ġoperating": 6772,
      "Ġdeaths": 6773,
      "Ġsynt": 6774,
      "cÃ©": 6775,
      "ĠNBA": 6776,
      "Ġequal": 6777,
      "Ġprisoners": 6778,
      "ĠJenny": 6779,
      "Ġbone": 6780,
      "atus": 6781,
      "arks": 6782,
      "ĠBase": 6783,
      "ĠLow": 6784,
      "ava": 6785,
      "ropri": 6786,
      "Ġweakened": 6787,
      "ĠGolden": 6788,
      "ĠColorado": 6789,
      "theless": 6790,
      "Ġcampus": 6791,
      "Ġmales": 6792,
      "Ġgigg": 6793,
      "ĠMama": 6794,
      "iva": 6795,
      "ĠKir": 6796,
      "Ġdecade": 6797,
      "Ġ81": 6798,
      "Ġexclus": 6799,
      "ii": 6800,
      "ington": 6801,
      "Ġknots": 6802,
      "Ġattached": 6803,
      "Ġ1983": 6804,
      "Ġsections": 6805,
      "ĠLewis": 6806,
      "ĠMD": 6807,
      "ĠWalk": 6808,
      "oop": 6809,
      "rapped": 6810,
      "Ġparties": 6811,
      "Ġhip": 6812,
      "Ġexchange": 6813,
      "Ġ74": 6814,
      "Ġrooms": 6815,
      "Ġbringing": 6816,
      "Ġscholars": 6817,
      "Äĥ": 6818,
      "Ġpump": 6819,
      "lee": 6820,
      "ĠFA": 6821,
      "ucing": 6822,
      "Ġbrigade": 6823,
      "Ġ82": 6824,
      "Ġstuff": 6825,
      "izations": 6826,
      "Ġintersection": 6827,
      "aser": 6828,
      "ĠSS": 6829,
      "ĠInc": 6830,
      "ĠUr": 6831,
      "Ġ1936": 6832,
      "ĠEmperor": 6833,
      "Ġgathered": 6834,
      "Ġchain": 6835,
      "Ġdecades": 6836,
      "Ġraise": 6837,
      "Ġobserv": 6838,
      "ĠSquare": 6839,
      "Ġvirt": 6840,
      "apping": 6841,
      "Ġpopularity": 6842,
      "ivalent": 6843,
      "ĠMiller": 6844,
      "ees": 6845,
      "Ġdanced": 6846,
      "Ġdecide": 6847,
      "Ġexpect": 6848,
      "Ġlasted": 6849,
      "ĠâĪĴ": 6850,
      "ĠDave": 6851,
      "Ġsmiling": 6852,
      "ĠChild": 6853,
      "Ġ71": 6854,
      "ifications": 6855,
      "Ġuseful": 6856,
      "Ġ1981": 6857,
      "espread": 6858,
      "psons": 6859,
      "Ġsnowman": 6860,
      "Ġweapon": 6861,
      "ĠRadio": 6862,
      "ĠJenn": 6863,
      "ĠUTC": 6864,
      "Ġagent": 6865,
      "ĠEarly": 6866,
      "ĠMrs": 6867,
      "Ġextremely": 6868,
      "ennon": 6869,
      "ĠAirport": 6870,
      "Station": 6871,
      "Ġcavalry": 6872,
      "ĠChap": 6873,
      "Ġsurvey": 6874,
      "Ġ1955": 6875,
      "Ġhello": 6876,
      "Ġcow": 6877,
      "ĠAlice": 6878,
      "Ġthreatened": 6879,
      "Ġfictional": 6880,
      "str": 6881,
      "Ġconqu": 6882,
      "Ġreputation": 6883,
      "ĠBruce": 6884,
      "Ġveter": 6885,
      "Ġtruth": 6886,
      "hat": 6887,
      "Ġtact": 6888,
      "ĠTweet": 6889,
      "urt": 6890,
      "ĠRon": 6891,
      "Ġpreced": 6892,
      "issance": 6893,
      "Ġcrime": 6894,
      "ĠSimpsons": 6895,
      "Ġroutes": 6896,
      "bar": 6897,
      "host": 6898,
      "uable": 6899,
      "ĠJersey": 6900,
      "Ġdistribution": 6901,
      "ĠOffic": 6902,
      "ensus": 6903,
      "Ġ93": 6904,
      "Ġballs": 6905,
      "Ġclasses": 6906,
      "Ġ1915": 6907,
      "Ġtypical": 6908,
      "noon": 6909,
      "Ġshirt": 6910,
      "Ġseeing": 6911,
      "ungle": 6912,
      "Ġduty": 6913,
      "Ġsack": 6914,
      "erry": 6915,
      "Ġmut": 6916,
      "earch": 6917,
      "Ġfemales": 6918,
      "Ġdirt": 6919,
      "aret": 6920,
      "Ġconsum": 6921,
      "Ġclassification": 6922,
      "iterranean": 6923,
      "Ġapplied": 6924,
      "state": 6925,
      "emies": 6926,
      "anches": 6927,
      "Ġzoom": 6928,
      "Ġsufficient": 6929,
      "agues": 6930,
      "Ġestate": 6931,
      "ĠPhill": 6932,
      "Ġviolence": 6933,
      "Ġshells": 6934,
      "Ġrural": 6935,
      "Ġbasketball": 6936,
      "Ġalternative": 6937,
      "Ġsight": 6938,
      "oma": 6939,
      "ĠLi": 6940,
      "Ġselect": 6941,
      "ighters": 6942,
      "Ġsheep": 6943,
      "Ġdisappointed": 6944,
      "ĠPlayStation": 6945,
      "eline": 6946,
      "ĠDue": 6947,
      "ĠRod": 6948,
      "ĠConstant": 6949,
      "Ġ1958": 6950,
      "Ġfaith": 6951,
      "Ġproposal": 6952,
      "Ġsend": 6953,
      "Ġdens": 6954,
      "ctions": 6955,
      "Ġoverl": 6956,
      "Ġ96": 6957,
      "ĠCommun": 6958,
      "Ġcustom": 6959,
      "eds": 6960,
      "Ġducks": 6961,
      "ifted": 6962,
      "ĠKat": 6963,
      "Ġyouth": 6964,
      "ĠMarine": 6965,
      "ierce": 6966,
      "ĠEmily": 6967,
      "Sh": 6968,
      "ĠTower": 6969,
      "Ġvon": 6970,
      "ĠArthur": 6971,
      "ĠMeanwhile": 6972,
      "ĠMediterranean": 6973,
      "Ġcasualties": 6974,
      "oir": 6975,
      "Ġdowntown": 6976,
      "lected": 6977,
      "Ġalle": 6978,
      "ĠMexican": 6979,
      "Ġpermanent": 6980,
      "ĠAst": 6981,
      "ĠNaval": 6982,
      "Ġ58": 6983,
      "Ġcozy": 6984,
      "Ġtelling": 6985,
      "oh": 6986,
      "Ġsink": 6987,
      "Ġfoss": 6988,
      "Ġnotice": 6989,
      "Ġimpl": 6990,
      "Ġknowing": 6991,
      "Ġparliament": 6992,
      "laimed": 6993,
      "Ġwarning": 6994,
      "ĠSometimes": 6995,
      "da": 6996,
      "Ġtanks": 6997,
      "Ġpale": 6998,
      "Ġnone": 6999,
      "Ġinternal": 7000,
      "Ġconnection": 7001,
      "Ġdoub": 7002,
      "ĠFrancisco": 7003,
      "Ġqueen": 7004,
      "char": 7005,
      "ĠGen": 7006,
      "ĠNaz": 7007,
      "ubb": 7008,
      "Ġmeters": 7009,
      "ĠRobin": 7010,
      "ĠOpen": 7011,
      "ĠDemocratic": 7012,
      "Ġeighth": 7013,
      "entially": 7014,
      "riff": 7015,
      "ivan": 7016,
      "Ġreduce": 7017,
      "Ġidentity": 7018,
      "Ġprincipal": 7019,
      "Ġladder": 7020,
      "gn": 7021,
      "ella": 7022,
      "Ġafternoon": 7023,
      "Ġretained": 7024,
      "Ġmedicine": 7025,
      "Ġfranchise": 7026,
      "book": 7027,
      "heastern": 7028,
      "ĠRow": 7029,
      "Ġbrill": 7030,
      "Ġacres": 7031,
      "Ġsubs": 7032,
      "ĠGrant": 7033,
      "poration": 7034,
      "ĠHawai": 7035,
      "ĠConfeder": 7036,
      "ĠHollywood": 7037,
      "Ġfestival": 7038,
      "Ġlink": 7039,
      "Ġserves": 7040,
      "aware": 7041,
      "insula": 7042,
      "Ġwindows": 7043,
      "Ġassistant": 7044,
      "itage": 7045,
      "ĠBand": 7046,
      "ĠRet": 7047,
      "Ġmoves": 7048,
      "Ġ86": 7049,
      "ĠOrder": 7050,
      "Ġcandidate": 7051,
      "Ġcrayons": 7052,
      "hol": 7053,
      "acts": 7054,
      "riers": 7055,
      "iege": 7056,
      "ĠStation": 7057,
      "Ġenthus": 7058,
      "Ġaddress": 7059,
      "Ġaspects": 7060,
      "ĠTro": 7061,
      "ĠAD": 7062,
      "agle": 7063,
      "Ġ68": 7064,
      "Ġcapable": 7065,
      "Ġobjects": 7066,
      "Ġpopulations": 7067,
      "ĠStew": 7068,
      "yphoon": 7069,
      "ait": 7070,
      "wen": 7071,
      "Ġwrest": 7072,
      "ĠPict": 7073,
      "Ġmemory": 7074,
      "Ġdomestic": 7075,
      "Ġmysterious": 7076,
      "Ġfill": 7077,
      "ĠHit": 7078,
      "eman": 7079,
      "Ġpoly": 7080,
      "ĠSimon": 7081,
      "ĠForest": 7082,
      "Ġpile": 7083,
      "Ġobtained": 7084,
      "Ġvolunte": 7085,
      "yo": 7086,
      "Ġlap": 7087,
      "ĠFire": 7088,
      "Ġlovely": 7089,
      "Ġwidespread": 7090,
      "ĠBad": 7091,
      "Ġcharged": 7092,
      "Ġoccurs": 7093,
      "Hey": 7094,
      "Ġhonest": 7095,
      "Ġhorn": 7096,
      "Ġnerv": 7097,
      "ĠMul": 7098,
      "ĠIGN": 7099,
      "Ġrug": 7100,
      "Ġ91": 7101,
      "Ġ1938": 7102,
      "Ġdigital": 7103,
      "Arthur": 7104,
      "Ġfinger": 7105,
      "ĠRi": 7106,
      "hedral": 7107,
      "Ġmeat": 7108,
      "ilding": 7109,
      "Ġremainder": 7110,
      "Ġterminus": 7111,
      "Me": 7112,
      "rations": 7113,
      "ĠAssembly": 7114,
      "Ġreaction": 7115,
      "á»": 7116,
      "Ġmusc": 7117,
      "Ġstronger": 7118,
      "ĠEngine": 7119,
      "Ġposted": 7120,
      "otype": 7121,
      "Ġtap": 7122,
      "Ġped": 7123,
      "uration": 7124,
      "Ġdepartment": 7125,
      "Ġ1962": 7126,
      "erted": 7127,
      "ilton": 7128,
      "Ġoffers": 7129,
      "Ġgenre": 7130,
      "pet": 7131,
      "ĠAri": 7132,
      "Ġsty": 7133,
      "Ġacts": 7134,
      "Ġcrash": 7135,
      "Ġwhenever": 7136,
      "Ġthinking": 7137,
      "alls": 7138,
      "osite": 7139,
      "Ġvent": 7140,
      "Ġcanc": 7141,
      "athan": 7142,
      "Ġentering": 7143,
      "ĠAtt": 7144,
      "Ġprovinc": 7145,
      "Ġconsisting": 7146,
      "Re": 7147,
      "ĠEle": 7148,
      "Ġmodels": 7149,
      "Ġbreaking": 7150,
      "Ġtechnical": 7151,
      "Ġpeaceful": 7152,
      "ĠOliv": 7153,
      "ĠTony": 7154,
      "ilty": 7155,
      "ador": 7156,
      "Ġeager": 7157,
      "ĠDer": 7158,
      "ervative": 7159,
      "fire": 7160,
      "ĠMTV": 7161,
      "Ġnoting": 7162,
      "ieval": 7163,
      "ignment": 7164,
      "Ġuniverse": 7165,
      "Ġ79": 7166,
      "Ġseparated": 7167,
      "Ġfunds": 7168,
      "Ġnav": 7169,
      "Ġcong": 7170,
      "Ġevolution": 7171,
      "Ġentry": 7172,
      "Ġ1919": 7173,
      "Ġhosted": 7174,
      "rin": 7175,
      "Ġchampion": 7176,
      "Ġassistance": 7177,
      "Ġarrested": 7178,
      "Ġfeathers": 7179,
      "Ġwolf": 7180,
      "ĠJake": 7181,
      "Ġspider": 7182,
      "Ġ1963": 7183,
      "Ġ1954": 7184,
      "ĠRoberts": 7185,
      "Ġoccasionally": 7186,
      "Ġattributed": 7187,
      "ĠColl": 7188,
      "ĠPot": 7189,
      "ĠJan": 7190,
      "ĠChron": 7191,
      "Ġinterested": 7192,
      "Ġcombination": 7193,
      "Ġdates": 7194,
      "ĠPass": 7195,
      "Ġsmoke": 7196,
      "Ġ78": 7197,
      "Ġminister": 7198,
      "Ġ1978": 7199,
      "ĠAdam": 7200,
      "Ġjudge": 7201,
      "Ġpurchase": 7202,
      "gers": 7203,
      "tical": 7204,
      "ĠAnth": 7205,
      "Ġcommunities": 7206,
      "Good": 7207,
      "ca": 7208,
      "ĠNap": 7209,
      "Ġreserve": 7210,
      "Ġdisag": 7211,
      "Ġadmitted": 7212,
      "Ġintelligence": 7213,
      "Ġstem": 7214,
      "Ġoldest": 7215,
      "ĠClark": 7216,
      "Ġinstalled": 7217,
      "Ġpossibility": 7218,
      "ommod": 7219,
      "Ġbegun": 7220,
      "Ġglobal": 7221,
      "Ġvary": 7222,
      "Ġrecalled": 7223,
      "Ġairport": 7224,
      "Ġpole": 7225,
      "Ġcoastal": 7226,
      "ĠDougl": 7227,
      "ĠMoo": 7228,
      "ropol": 7229,
      "Ġvessels": 7230,
      "Ġdisappeared": 7231,
      "Ġsalt": 7232,
      "ĠAI": 7233,
      "ĠHun": 7234,
      "ĠNixon": 7235,
      "Ġskills": 7236,
      "Ġzone": 7237,
      "Ġcouch": 7238,
      "Ġconsiderable": 7239,
      "rm": 7240,
      "ompl": 7241,
      "ules": 7242,
      "Ġextension": 7243,
      "Ġsolid": 7244,
      "Ġderived": 7245,
      "Ġduties": 7246,
      "Ġtub": 7247,
      "Ġneither": 7248,
      "Ġcommitted": 7249,
      "Ġresistance": 7250,
      "ocolate": 7251,
      "BN": 7252,
      "Ġtid": 7253,
      "Ġpup": 7254,
      "rence": 7255,
      "ĠPhilipp": 7256,
      "Ġwed": 7257,
      "Ġasleep": 7258,
      "Ġagree": 7259,
      "oard": 7260,
      "ĠBang": 7261,
      "ĠRyan": 7262,
      "abled": 7263,
      "Ġsole": 7264,
      "avia": 7265,
      "Ġcommanded": 7266,
      "abama": 7267,
      "Ġ176": 7268,
      "Ġspeaking": 7269,
      "Ġblew": 7270,
      "Ġastron": 7271,
      "iques": 7272,
      "FA": 7273,
      "Ġax": 7274,
      "iders": 7275,
      "Ġshining": 7276,
      "ĠEver": 7277,
      "Ġexpand": 7278,
      "Ġ1961": 7279,
      "Ġclassic": 7280,
      "Ġsatisf": 7281,
      "ĠGeorgia": 7282,
      "Ġbrilliant": 7283,
      "BI": 7284,
      "Ġsam": 7285,
      "Ġmort": 7286,
      "Ġ1977": 7287,
      "Ġconcerns": 7288,
      "lim": 7289,
      "ãģ": 7290,
      "Ġrum": 7291,
      "uddle": 7292,
      "hess": 7293,
      "Ġaccompl": 7294,
      "Ġmyth": 7295,
      "Ġ1937": 7296,
      "Ġpleased": 7297,
      "Ġtoll": 7298,
      "Ġdated": 7299,
      "Ġheat": 7300,
      "ĠFre": 7301,
      "Ġcopper": 7302,
      "Ġpassenger": 7303,
      "ĠConst": 7304,
      "Ġ130": 7305,
      "ĠMcK": 7306,
      "ĠProject": 7307,
      "Ġec": 7308,
      "Ġsoil": 7309,
      "ĠStaff": 7310,
      "Ġimages": 7311,
      "Ġbranches": 7312,
      "ĠScience": 7313,
      "ilation": 7314,
      "lyn": 7315,
      "ĠPower": 7316,
      "Ġcharges": 7317,
      "ĠMarc": 7318,
      "Ġstrateg": 7319,
      "Ġcauses": 7320,
      "Ġjumping": 7321,
      "ĠSerb": 7322,
      "olished": 7323,
      "ĠChannel": 7324,
      "Ġstatement": 7325,
      "Ġsettle": 7326,
      "Ġgently": 7327,
      "Ġuniform": 7328,
      "elsh": 7329,
      "Ġequipped": 7330,
      "Ġnomination": 7331,
      "Ġstretch": 7332,
      "Ġwealthy": 7333,
      "ye": 7334,
      "arted": 7335,
      "ĠDri": 7336,
      "ĠWork": 7337,
      "Ġgirls": 7338,
      "Ġtransp": 7339,
      "ĠHoward": 7340,
      "Ġstrongly": 7341,
      "Ġscatter": 7342,
      "Ġcomposition": 7343,
      "Ġappoint": 7344,
      "Ġprint": 7345,
      "ĠIndepend": 7346,
      "Ġclassified": 7347,
      "pass": 7348,
      "ĠCher": 7349,
      "Ġ110": 7350,
      "Ġinstall": 7351,
      "Ġstands": 7352,
      "ĠDiego": 7353,
      "ĠLennon": 7354,
      "ĠRo": 7355,
      "oos": 7356,
      "osis": 7357,
      "Ġmanner": 7358,
      "Ġdoct": 7359,
      "Ġenemies": 7360,
      "Ġimplement": 7361,
      "Ġbands": 7362,
      "hetic": 7363,
      "Ġdenied": 7364,
      "Ġemerged": 7365,
      "ĠNether": 7366,
      "Ġsmelled": 7367,
      "Ġprey": 7368,
      "ĠMaria": 7369,
      "Ġaffect": 7370,
      "ĠHart": 7371,
      "ĠPrem": 7372,
      "ordon": 7373,
      "Ġmaybe": 7374,
      "Ġdifference": 7375,
      "Ġdissip": 7376,
      "Ġdiamond": 7377,
      "Ġpuzzle": 7378,
      "works": 7379,
      "Ġstable": 7380,
      "Ġjew": 7381,
      "ĠZh": 7382,
      "Ġequivalent": 7383,
      "Ġillust": 7384,
      "Ġencouraged": 7385,
      "Ġthousands": 7386,
      "after": 7387,
      "onia": 7388,
      "ĠTal": 7389,
      "add": 7390,
      "izza": 7391,
      "Ġretreat": 7392,
      "iversary": 7393,
      "AR": 7394,
      "ader": 7395,
      "Ġbridges": 7396,
      "ĠSpring": 7397,
      "ĠWhy": 7398,
      "Ġpassage": 7399,
      "Ġstrip": 7400,
      "Ġportrayed": 7401,
      "Ġdolph": 7402,
      "lets": 7403,
      "ĠHy": 7404,
      "Ġspons": 7405,
      "ĠArmen": 7406,
      "inois": 7407,
      "Ġtasty": 7408,
      "Ġcinem": 7409,
      "ĠWelsh": 7410,
      "Ġspend": 7411,
      "Ġscul": 7412,
      "Ġpolitics": 7413,
      "ician": 7414,
      "eck": 7415,
      "ĠDog": 7416,
      "Ġspoon": 7417,
      "Ġassumed": 7418,
      "Ġowners": 7419,
      "ĠFair": 7420,
      "Ġscr": 7421,
      "Ġpassengers": 7422,
      "Ġbasic": 7423,
      "Ġcircle": 7424,
      "ĠMadonna": 7425,
      "ĠMoon": 7426,
      "ĠIra": 7427,
      "velopment": 7428,
      "Ġ1957": 7429,
      "Ġstream": 7430,
      "Ġmissions": 7431,
      "Ġcosts": 7432,
      "ns": 7433,
      "Ġborrow": 7434,
      "Ġforth": 7435,
      "ĠFame": 7436,
      "Ġapprec": 7437,
      "ĠAlf": 7438,
      "ĠLeon": 7439,
      "Ġ1952": 7440,
      "ĠPlan": 7441,
      "Ġinvolving": 7442,
      "ĠNorwe": 7443,
      "Ġspecifically": 7444,
      "Just": 7445,
      "inton": 7446,
      "Ġshy": 7447,
      "ĠAlabama": 7448,
      "Ġdescribing": 7449,
      "ĠJam": 7450,
      "Ġfled": 7451,
      "Ġsurrounded": 7452,
      "ĠMatthew": 7453,
      "ĠSup": 7454,
      "Ġspo": 7455,
      "Ġpatrol": 7456,
      "ĠAdditionally": 7457,
      "Luc": 7458,
      "ĠTheatre": 7459,
      "Ġhelpful": 7460,
      "Ġaccused": 7461,
      "Ġauthors": 7462,
      "Ġsoul": 7463,
      "dd": 7464,
      "ĠBud": 7465,
      "Ġflow": 7466,
      "Å¡": 7467,
      "Ġconvent": 7468,
      "ĠNC": 7469,
      "iller": 7470,
      "Ġpromote": 7471,
      "Ġratings": 7472,
      "Ġgal": 7473,
      "Ġstir": 7474,
      "ĠWomen": 7475,
      "Ġaccommod": 7476,
      "Ġpolic": 7477,
      "Ġbehavior": 7478,
      "ĠNHL": 7479,
      "Ġvir": 7480,
      "Ġfeelings": 7481,
      "Ġguilty": 7482,
      "Ġdestruction": 7483,
      "ĠEvans": 7484,
      "ĠGilbert": 7485,
      "Ġtent": 7486,
      "Ġbub": 7487,
      "utt": 7488,
      "ĠBack": 7489,
      "Ġvoted": 7490,
      "ĠStadium": 7491,
      "Ġstones": 7492,
      "ĠDE": 7493,
      "ĠJay": 7494,
      "Ġsmell": 7495,
      "Ġactual": 7496,
      "ĠReview": 7497,
      "Ġ1951": 7498,
      "Ġsquad": 7499,
      "Ġcirculation": 7500,
      "ĠKevin": 7501,
      "ĠIllinois": 7502,
      "Ġnervous": 7503,
      "icop": 7504,
      "Ġgrey": 7505,
      "urches": 7506,
      "ĠRoy": 7507,
      "Ġformal": 7508,
      "ullivan": 7509,
      "Ġpenal": 7510,
      "Ġliterary": 7511,
      "Ġneighborhood": 7512,
      "heme": 7513,
      "Ġchase": 7514,
      "Ġjungle": 7515,
      "Ġreception": 7516,
      "Ġreality": 7517,
      "ĠBobby": 7518,
      "Ġresources": 7519,
      "20": 7520,
      "Ġworst": 7521,
      "Ġbadly": 7522,
      "ĠMagazine": 7523,
      "Ġstock": 7524,
      "sex": 7525,
      "ĠKorean": 7526,
      "Every": 7527,
      "icit": 7528,
      "ĠTok": 7529,
      "roit": 7530,
      "ĠOb": 7531,
      "Ġpretended": 7532,
      "Ġafterwards": 7533,
      "Ġcommit": 7534,
      "Ġunderstanding": 7535,
      "How": 7536,
      "wall": 7537,
      "Ġspray": 7538,
      "Ġ1959": 7539,
      "Ġfrustrated": 7540,
      "Ġrevolution": 7541,
      "ĠDirector": 7542,
      "ĠCirc": 7543,
      "ĠLab": 7544,
      "Ġridge": 7545,
      "Ġdecline": 7546,
      "wealth": 7547,
      "ĠSnow": 7548,
      "ĠISBN": 7549,
      "yes": 7550,
      "ati": 7551,
      "oting": 7552,
      "ĠCas": 7553,
      "ĠDaily": 7554,
      "Ġfinishing": 7555,
      "Ġwand": 7556,
      "Ġchocolate": 7557,
      "Ġrestored": 7558,
      "Ġopposite": 7559,
      "ĠPC": 7560,
      "ĠOm": 7561,
      "Ġaboard": 7562,
      "Ġadults": 7563,
      "Ġobl": 7564,
      "Ġprovince": 7565,
      "Ġkeeping": 7566,
      "rogen": 7567,
      "Ġexception": 7568,
      "Ġcertified": 7569,
      "Ġtape": 7570,
      "ĠNFL": 7571,
      "Ġmarry": 7572,
      "ĠMacArthur": 7573,
      "ĠSilver": 7574,
      "Ġparent": 7575,
      "Ġet": 7576,
      "ĠHug": 7577,
      "Ġcanal": 7578,
      "Ġregional": 7579,
      "Ġinjuries": 7580,
      "ĠDouglas": 7581,
      "Ġtheater": 7582,
      "ĠVe": 7583,
      "Ġ1910": 7584,
      "ĠProf": 7585,
      "Ġfishing": 7586,
      "Ġfacility": 7587,
      "ĠSongs": 7588,
      "keeper": 7589,
      "oa": 7590,
      "uther": 7591,
      "Ġsem": 7592,
      "Ġintention": 7593,
      "Ġcrosses": 7594,
      "Ġcomposer": 7595,
      "Ġbats": 7596,
      "ĠLook": 7597,
      "encies": 7598,
      "Ġstreets": 7599,
      "Ġmistake": 7600,
      "mble": 7601,
      "Ġcrop": 7602,
      "Ġdie": 7603,
      "Ġaccur": 7604,
      "ĠBeyon": 7605,
      "Ġdebate": 7606,
      "Ġtemporary": 7607,
      "Ġmathem": 7608,
      "Ġdifficulty": 7609,
      "Ġtasted": 7610,
      "Ġbreath": 7611,
      "ĠSky": 7612,
      "Ġotherwise": 7613,
      "Ġcompletion": 7614,
      "Ġresponsibility": 7615,
      "Ġforgive": 7616,
      "Ġsurviving": 7617,
      "Ġhal": 7618,
      "ĠBor": 7619,
      "olves": 7620,
      "ĠFI": 7621,
      "Ġchased": 7622,
      "Ġadap": 7623,
      "ĠArts": 7624,
      "Ġgreatly": 7625,
      "bey": 7626,
      "Ġpermission": 7627,
      "ji": 7628,
      "Ġwins": 7629,
      "ĠPu": 7630,
      "Ġdesire": 7631,
      "Ġmush": 7632,
      "Ġsword": 7633,
      "Ġsnack": 7634,
      "Ġrequested": 7635,
      "ĠPhilip": 7636,
      "Ġreinforce": 7637,
      "Ġincorporated": 7638,
      "ĠNorwegian": 7639,
      "organ": 7640,
      "ĠMittens": 7641,
      "Ġ98": 7642,
      "Ġattracted": 7643,
      "borne": 7644,
      "III": 7645,
      "ĠNetherlands": 7646,
      "mun": 7647,
      "Ġapples": 7648,
      "Ġcarbon": 7649,
      "Ġ1949": 7650,
      "isms": 7651,
      "Ġadministr": 7652,
      "Ġbes": 7653,
      "ĠVideo": 7654,
      "weight": 7655,
      "Ġvalley": 7656,
      "Ġvaluable": 7657,
      "Ġtowers": 7658,
      "ĠCommonwealth": 7659,
      "Soon": 7660,
      "ĠLoc": 7661,
      "ĠAlan": 7662,
      "Ġreplacement": 7663,
      "Ġpromotion": 7664,
      "Ġsons": 7665,
      "Ġpound": 7666,
      "ĠTreat": 7667,
      "Ġwash": 7668,
      "ĠEp": 7669,
      "Ġsequel": 7670,
      "Ġwalks": 7671,
      "night": 7672,
      "Ġbrand": 7673,
      "Ġpraise": 7674,
      "ĠOttoman": 7675,
      "Ġmode": 7676,
      "ĠTob": 7677,
      "Ġthirty": 7678,
      "Ġ84": 7679,
      "fted": 7680,
      "nce": 7681,
      "Ġbull": 7682,
      "Ġprince": 7683,
      "Ġgrant": 7684,
      "Ġsupporters": 7685,
      "Ġclimate": 7686,
      "Ġdeparture": 7687,
      "Ġalleged": 7688,
      "ĠBeyoncÃ©": 7689,
      "ache": 7690,
      "stal": 7691,
      "ĠBol": 7692,
      "Ġload": 7693,
      "Ġ89": 7694,
      "Ġaccounts": 7695,
      "Ġpersu": 7696,
      "ĠMcG": 7697,
      "Ġindependence": 7698,
      "ĠResearch": 7699,
      "Ġancest": 7700,
      "Ġcruiser": 7701,
      "ĠBetween": 7702,
      "Ġsegment": 7703,
      "Ġcategory": 7704,
      "Ġinvent": 7705,
      "ĠVar": 7706,
      "uthor": 7707,
      "Tommy": 7708,
      "Ġcorrect": 7709,
      "Ġvictims": 7710,
      "Ġpredec": 7711,
      "Ġabsor": 7712,
      "chers": 7713,
      "Ġinvestigation": 7714,
      "Ġscreamed": 7715,
      "usted": 7716,
      "ogen": 7717,
      "scape": 7718,
      "Ġmicro": 7719,
      "ĠDetroit": 7720,
      "nest": 7721,
      "nings": 7722,
      "Ġrib": 7723,
      "Ġsessions": 7724,
      "Ġoven": 7725,
      "ĠLanc": 7726,
      "Ġscream": 7727,
      "ogy": 7728,
      "enson": 7729,
      "Ġhelicop": 7730,
      "ĠProg": 7731,
      "Ġruled": 7732,
      "ĠRoger": 7733,
      "Ġrestaurant": 7734,
      "ilst": 7735,
      "ansas": 7736,
      "Ġ83": 7737,
      "Ġresemb": 7738,
      "Ġrailroad": 7739,
      "anna": 7740,
      "Ġclock": 7741,
      "Ġdownload": 7742,
      "Ġphase": 7743,
      "Ġeffectively": 7744,
      "Ġarchae": 7745,
      "ĠWeekly": 7746,
      "Ne": 7747,
      "ĠGard": 7748,
      "Ġincome": 7749,
      "Ġuncom": 7750,
      "Ġassociation": 7751,
      "Ġestablishment": 7752,
      "imp": 7753,
      "acent": 7754,
      "ĠRem": 7755,
      "ĠGram": 7756,
      "Ġcler": 7757,
      "Ġhelps": 7758,
      "Ġgeneration": 7759,
      "Ġtriang": 7760,
      "ĠPete": 7761,
      "Ġmaterials": 7762,
      "know": 7763,
      "Ġpige": 7764,
      "Ġthrone": 7765,
      "ĠRolling": 7766,
      "Ch": 7767,
      "nie": 7768,
      "ĠSix": 7769,
      "thy": 7770,
      "Ġquant": 7771,
      "Ġgrade": 7772,
      "ĠParker": 7773,
      "ĠMarshall": 7774,
      "Ġcomfortable": 7775,
      "Ġfolk": 7776,
      "sters": 7777,
      "Ġouter": 7778,
      "Ġ88": 7779,
      "Ġdifferences": 7780,
      "ĠMemorial": 7781,
      "ĠJacob": 7782,
      "net": 7783,
      "ĠNick": 7784,
      "Ġsho": 7785,
      "Ġexplain": 7786,
      "Ġobtain": 7787,
      "Ġtransition": 7788,
      "ructure": 7789,
      "Ġpitched": 7790,
      "ygen": 7791,
      "Ġtheatre": 7792,
      "Ġleads": 7793,
      "rett": 7794,
      "Ġchalleng": 7795,
      "Ġdistributed": 7796,
      "Ġcolonial": 7797,
      "ban": 7798,
      "hi": 7799,
      "Ġninth": 7800,
      "Ġdispl": 7801,
      "Ġgrounds": 7802,
      "Ġbugs": 7803,
      "Ġteaching": 7804,
      "Ġairl": 7805,
      "orage": 7806,
      "uty": 7807,
      "Ġraces": 7808,
      "ĠNet": 7809,
      "Ġsongwrit": 7810,
      "ĠLeaf": 7811,
      "ĠHero": 7812,
      "ĠPoland": 7813,
      "Ġsurviv": 7814,
      "ĠMoore": 7815,
      "rees": 7816,
      "Ġsugar": 7817,
      "istol": 7818,
      "Ġrecovered": 7819,
      "Ġmusicians": 7820,
      "Ġsoldier": 7821,
      "Ġruined": 7822,
      "ĠIraq": 7823,
      "Lucy": 7824,
      "Ġmushroom": 7825,
      "inced": 7826,
      "ĠDom": 7827,
      "Ġrelative": 7828,
      "Ġ1935": 7829,
      "ĠHistory": 7830,
      "Ġpure": 7831,
      "ĠSax": 7832,
      "ĠBaby": 7833,
      "Ġshield": 7834,
      "osy": 7835,
      "ĠKu": 7836,
      "Ġeleven": 7837,
      "Ġdriven": 7838,
      "Ġpicnic": 7839,
      "ĠPortug": 7840,
      "Ġfunding": 7841,
      "CC": 7842,
      "Ġlights": 7843,
      "ĠTrib": 7844,
      "emeter": 7845,
      "Ġframe": 7846,
      "Ġconvinced": 7847,
      "Ġdetermine": 7848,
      "ĠAge": 7849,
      "ĠLibr": 7850,
      "Ġovers": 7851,
      "Ġrenew": 7852,
      "Ġsomewhat": 7853,
      "ito": 7854,
      "Ġlift": 7855,
      "ĠTs": 7856,
      "irds": 7857,
      "Ġskull": 7858,
      "ĠScully": 7859,
      "Ġfurry": 7860,
      "Ġgraphics": 7861,
      "Ġatmosphere": 7862,
      "mers": 7863,
      "Ġbond": 7864,
      "Ġhears": 7865,
      "Ġstops": 7866,
      "aine": 7867,
      "ĠWrit": 7868,
      "Ġtrunk": 7869,
      "ĠBeach": 7870,
      "ĠSee": 7871,
      "hanna": 7872,
      "ĠFreder": 7873,
      "Ġhunting": 7874,
      "Ġconcerned": 7875,
      "Ġembarrassed": 7876,
      "Ġdollar": 7877,
      "Ġexperiences": 7878,
      "Ġgarage": 7879,
      "ĠDisney": 7880,
      "ĠSel": 7881,
      "ctic": 7882,
      "ĠEs": 7883,
      "Ġjog": 7884,
      "ĠLeo": 7885,
      "Ġfallen": 7886,
      "Ġprogramme": 7887,
      "Ġregularly": 7888,
      "ĠKorea": 7889,
      "Ġtomorrow": 7890,
      "aya": 7891,
      "Ġacknow": 7892,
      "Ġsuffering": 7893,
      "Ġbattleships": 7894,
      "Ġpremiere": 7895,
      "ĠSupreme": 7896,
      "Ġcul": 7897,
      "Ġinner": 7898,
      "Ġvide": 7899,
      "ĠVill": 7900,
      "pert": 7901,
      "Ġremove": 7902,
      "Ġrelax": 7903,
      "Ġ1933": 7904,
      "ĠProt": 7905,
      "Ġrecognition": 7906,
      "Ġimmediate": 7907,
      "Ġmunicip": 7908,
      "ĠSpears": 7909,
      "Ġlongest": 7910,
      "aze": 7911,
      "aska": 7912,
      "going": 7913,
      "Ġtightly": 7914,
      "itter": 7915,
      "angers": 7916,
      "Ġtemperatures": 7917,
      "Ġdelayed": 7918,
      "power": 7919,
      "erves": 7920,
      "apse": 7921,
      "Ġsecured": 7922,
      "Ġconsc": 7923,
      "ĠSpace": 7924,
      "Ġreturns": 7925,
      "Ġmassive": 7926,
      "ĠMilitary": 7927,
      "Ġwhistle": 7928,
      "Ġpizza": 7929,
      "ĠAk": 7930,
      "Ġspending": 7931,
      "uster": 7932,
      "Ġdisturb": 7933,
      "Ġanimated": 7934,
      "Ġtemple": 7935,
      "Ġinspiration": 7936,
      "Ġdiscussed": 7937,
      "ĠSanta": 7938,
      "ĠBeatles": 7939,
      "Ġsculpt": 7940,
      "put": 7941,
      "Ġlat": 7942,
      "ĠGiants": 7943,
      "Ġ92": 7944,
      "Ġ900": 7945,
      "ĠArgent": 7946,
      "ycl": 7947,
      "iliar": 7948,
      "iac": 7949,
      "Ġsale": 7950,
      "Ġhockey": 7951,
      "ĠHou": 7952,
      "ĠDig": 7953,
      "Ġjack": 7954,
      "Ġemergency": 7955,
      "Ġsynthes": 7956,
      "ingly": 7957,
      "Ġdanc": 7958,
      "ĠHospital": 7959,
      "Ġreconst": 7960,
      "Ġcargo": 7961,
      "Ã³n": 7962,
      "Ġlegislation": 7963,
      "ĠShortly": 7964,
      "Ġsticks": 7965,
      "ĠGordon": 7966,
      "artney": 7967,
      "iece": 7968,
      "sole": 7969,
      "Ġforming": 7970,
      "Ġapolog": 7971,
      "Ġrobot": 7972,
      "Ġinterpret": 7973,
      "ĠBab": 7974,
      "Ġmovements": 7975,
      "Ġencountered": 7976,
      "ĠMissouri": 7977,
      "jo": 7978,
      "chang": 7979,
      "ĠRain": 7980,
      "opes": 7981,
      "emed": 7982,
      "Ġstarred": 7983,
      "Ġremix": 7984,
      "Ġfriendship": 7985,
      "Ġcrimin": 7986,
      "Ġprize": 7987,
      "ĠCharl": 7988,
      "ĠDoctor": 7989,
      "Ġoxygen": 7990,
      "Ġdipl": 7991,
      "Ġbutt": 7992,
      "Ġspicy": 7993,
      "Ġ1931": 7994,
      "fee": 7995,
      "Ġclubs": 7996,
      "Ġensure": 7997,
      "Ġinvolvement": 7998,
      "Ġbid": 7999,
      "anth": 8000,
      "Ġhipp": 8001,
      "ĠPear": 8002,
      "ugosl": 8003,
      "ossible": 8004,
      "Ġmedieval": 8005,
      "Ġcastles": 8006,
      "ĠPalace": 8007,
      "rig": 8008,
      "Ġfil": 8009,
      "ĠLith": 8010,
      "rior": 8011,
      "iami": 8012,
      "ĠDavis": 8013,
      "regon": 8014,
      "Ġarchitecture": 8015,
      "Come": 8016,
      "My": 8017,
      "oen": 8018,
      "ĠBou": 8019,
      "urance": 8020,
      "Ġriding": 8021,
      "Ġshots": 8022,
      "Ġmeets": 8023,
      "Ġoperate": 8024,
      "Ġhistorians": 8025,
      "Ġcruisers": 8026,
      "umin": 8027,
      "Ġmoments": 8028,
      "iley": 8029,
      "Ġassass": 8030,
      "Ġresear": 8031,
      "Ġtraveled": 8032,
      "Ġtough": 8033,
      "Ġrender": 8034,
      "rots": 8035,
      "ĠDomin": 8036,
      "ĠHeart": 8037,
      "ooked": 8038,
      "Ġpreferred": 8039,
      "gly": 8040,
      "ko": 8041,
      "wick": 8042,
      "ĠAth": 8043,
      "eton": 8044,
      "ĠCyr": 8045,
      "ĠNBC": 8046,
      "ĠEric": 8047,
      "Ġscheme": 8048,
      "Ġnovels": 8049,
      "Ġfavourite": 8050,
      "ĠCroatia": 8051,
      "Ġille": 8052,
      "ici": 8053,
      "rait": 8054,
      "Ġ140": 8055,
      "arsh": 8056,
      "ĠRussell": 8057,
      "Ġdominated": 8058,
      "Ġcontroversy": 8059,
      "ĠPitts": 8060,
      "lings": 8061,
      "urse": 8062,
      "Ġvel": 8063,
      "ategy": 8064,
      "Ġteen": 8065,
      "Ġtechniques": 8066,
      "Ġinformed": 8067,
      "Ġprecip": 8068,
      "Jim": 8069,
      "ĠDur": 8070,
      "Ġjoke": 8071,
      "Ġtrained": 8072,
      "Ġremn": 8073,
      "ĠCarter": 8074,
      "Ġinfluential": 8075,
      "Ġchorus": 8076,
      "Ġlane": 8077,
      "ĠCry": 8078,
      "Ġwhis": 8079,
      "osure": 8080,
      "ĠRex": 8081,
      "ĠMedal": 8082,
      "Ġtears": 8083,
      "Ġpapers": 8084,
      "ĠTan": 8085,
      "ĠOregon": 8086,
      "Ġranking": 8087,
      "Ġbrain": 8088,
      "ĠMint": 8089,
      "ĠCorporation": 8090,
      "EC": 8091,
      "lines": 8092,
      "rant": 8093,
      "Ġtools": 8094,
      "ĠPlease": 8095,
      "ĠEventually": 8096,
      "Ġseats": 8097,
      "ĠInit": 8098,
      "Ġjazz": 8099,
      "Ġflu": 8100,
      "Ġdepict": 8101,
      "Ġreviewer": 8102,
      "ĠJustice": 8103,
      "Ġrhyth": 8104,
      "don": 8105,
      "oys": 8106,
      "Ġmonarch": 8107,
      "ĠStanley": 8108,
      "Ġtests": 8109,
      "ano": 8110,
      "raph": 8111,
      "Ġoutbreak": 8112,
      "Ġclaiming": 8113,
      "ĠMiami": 8114,
      "unes": 8115,
      "ĠThus": 8116,
      "Ġcovers": 8117,
      "Ġsuperior": 8118,
      "Ġprotagonist": 8119,
      "ĠSingles": 8120,
      "Ġromantic": 8121,
      "ĠLibrary": 8122,
      "bell": 8123,
      "Ġmamm": 8124,
      "Ġdating": 8125,
      "ĠDNA": 8126,
      "ĠNel": 8127,
      "Ġincred": 8128,
      "ĠAdams": 8129,
      "Ġfactors": 8130,
      "Ġdetailed": 8131,
      "ĠTransport": 8132,
      "Ġemotional": 8133,
      "ĠAlbums": 8134,
      "Now": 8135,
      "uting": 8136,
      "ĠPed": 8137,
      "ĠRachel": 8138,
      "Ġ1890": 8139,
      "Ġphotograph": 8140,
      "Ġvegetables": 8141,
      "ropolitan": 8142,
      "Ġcage": 8143,
      "Ġpacked": 8144,
      "icians": 8145,
      "ĠRAF": 8146,
      "ĠNich": 8147,
      "ĠOk": 8148,
      "Ġappropri": 8149,
      "ĠHamilton": 8150,
      "Ġacademic": 8151,
      "dale": 8152,
      "itable": 8153,
      "Ġcub": 8154,
      "Ġexisted": 8155,
      "aha": 8156,
      "Ġanniversary": 8157,
      "Ġneckl": 8158,
      "pective": 8159,
      "ĠTechn": 8160,
      "ĠHorn": 8161,
      "ĠBishop": 8162,
      "Ġtrucks": 8163,
      "Ġfinals": 8164,
      "Ġappearing": 8165,
      "Ġstorms": 8166,
      "Ġ1921": 8167,
      "Ġdollars": 8168,
      "Ġcelebrated": 8169,
      "Ġisolated": 8170,
      "ĠId": 8171,
      "ĠAnne": 8172,
      "Ġbatting": 8173,
      "Ġchemical": 8174,
      "ĠJournal": 8175,
      "Ġfitted": 8176,
      "Ġreaches": 8177,
      "ĠFive": 8178,
      "berry": 8179,
      "Ġimpressive": 8180,
      "Ġconstruct": 8181,
      "Ġbedroom": 8182,
      "Ġpalace": 8183,
      "ĠPremier": 8184,
      "Ġpenalty": 8185,
      "names": 8186,
      "Ġsan": 8187,
      "ece": 8188,
      "Ġracing": 8189,
      "Ġalive": 8190,
      "istent": 8191
    },
    "merges": [
      [
        "Ġ",
        "t"
      ],
      [
        "h",
        "e"
      ],
      [
        "Ġ",
        "a"
      ],
      [
        "i",
        "n"
      ],
      [
        "Ġt",
        "he"
      ],
      [
        "n",
        "d"
      ],
      [
        "Ġ",
        "s"
      ],
      [
        "e",
        "r"
      ],
      [
        "Ġ",
        "w"
      ],
      [
        "e",
        "d"
      ],
      [
        "o",
        "n"
      ],
      [
        "r",
        "e"
      ],
      [
        "Ġ",
        ","
      ],
      [
        "Ġ",
        "o"
      ],
      [
        "Ġ",
        "b"
      ],
      [
        "Ġ",
        "f"
      ],
      [
        "i",
        "t"
      ],
      [
        "a",
        "t"
      ],
      [
        "Ġ",
        "c"
      ],
      [
        "Ġa",
        "nd"
      ],
      [
        "e",
        "n"
      ],
      [
        "Ġt",
        "o"
      ],
      [
        "o",
        "r"
      ],
      [
        "a",
        "r"
      ],
      [
        "i",
        "s"
      ],
      [
        "a",
        "n"
      ],
      [
        "a",
        "s"
      ],
      [
        "Ġ",
        "."
      ],
      [
        "Ġ",
        "p"
      ],
      [
        "e",
        "s"
      ],
      [
        "in",
        "g"
      ],
      [
        "Ġ",
        "h"
      ],
      [
        "Ġ",
        "in"
      ],
      [
        "o",
        "u"
      ],
      [
        "Ġo",
        "f"
      ],
      [
        "a",
        "l"
      ],
      [
        "Ġ",
        "m"
      ],
      [
        "Ġ",
        "d"
      ],
      [
        "o",
        "m"
      ],
      [
        "Ġ",
        "l"
      ],
      [
        "i",
        "c"
      ],
      [
        "Ġ",
        "T"
      ],
      [
        "i",
        "l"
      ],
      [
        "Ġw",
        "as"
      ],
      [
        "Ġ",
        "S"
      ],
      [
        "i",
        "on"
      ],
      [
        "Ġt",
        "h"
      ],
      [
        "l",
        "e"
      ],
      [
        "Ġ",
        "n"
      ],
      [
        "Ġ",
        "he"
      ],
      [
        "t",
        "e"
      ],
      [
        "Ġ",
        "g"
      ],
      [
        "a",
        "d"
      ],
      [
        "i",
        "d"
      ],
      [
        "Ġ",
        "\""
      ],
      [
        "a",
        "y"
      ],
      [
        "Ġ",
        "re"
      ],
      [
        "Ġ",
        "e"
      ],
      [
        "en",
        "t"
      ],
      [
        "r",
        "o"
      ],
      [
        "a",
        "m"
      ],
      [
        "i",
        "m"
      ],
      [
        "e",
        "l"
      ],
      [
        "ĠT",
        "he"
      ],
      [
        "a",
        "c"
      ],
      [
        "Ġ",
        "A"
      ],
      [
        "i",
        "r"
      ],
      [
        "e",
        "t"
      ],
      [
        "s",
        "t"
      ],
      [
        "Ġ",
        "1"
      ],
      [
        "e",
        "nd"
      ],
      [
        "Ġ",
        "on"
      ],
      [
        "Ġ",
        "H"
      ],
      [
        "u",
        "t"
      ],
      [
        "v",
        "er"
      ],
      [
        "o",
        "t"
      ],
      [
        "l",
        "y"
      ],
      [
        "i",
        "g"
      ],
      [
        "Ġ",
        "@"
      ],
      [
        "Ġb",
        "e"
      ],
      [
        "Ġ",
        "M"
      ],
      [
        "Ġ",
        "C"
      ],
      [
        "Ġ",
        "B"
      ],
      [
        "u",
        "r"
      ],
      [
        "o",
        "w"
      ],
      [
        "Ġ",
        "I"
      ],
      [
        "x",
        "t"
      ],
      [
        "Ġf",
        "or"
      ],
      [
        "o",
        "l"
      ],
      [
        "it",
        "h"
      ],
      [
        "v",
        "e"
      ],
      [
        "Ġ",
        "it"
      ],
      [
        "o",
        "f"
      ],
      [
        "Ġs",
        "t"
      ],
      [
        "Ġw",
        "ith"
      ],
      [
        "Ġ",
        "u"
      ],
      [
        "te",
        "xt"
      ],
      [
        "end",
        "of"
      ],
      [
        "<",
        "|"
      ],
      [
        "|",
        ">"
      ],
      [
        "endof",
        "text"
      ],
      [
        "Ġa",
        "s"
      ],
      [
        "t",
        "er"
      ],
      [
        "Ġth",
        "at"
      ],
      [
        "Ġ",
        "'"
      ],
      [
        "e",
        "c"
      ],
      [
        "-",
        "@"
      ],
      [
        "Ġ@",
        "-@"
      ],
      [
        "Ġ",
        "L"
      ],
      [
        "c",
        "e"
      ],
      [
        "r",
        "i"
      ],
      [
        "Ġw",
        "h"
      ],
      [
        "Ġ",
        "r"
      ],
      [
        "Ġa",
        "l"
      ],
      [
        "Ġh",
        "is"
      ],
      [
        "Ġ",
        "is"
      ],
      [
        "c",
        "h"
      ],
      [
        "s",
        "e"
      ],
      [
        "Ġ",
        "2"
      ],
      [
        "he",
        "r"
      ],
      [
        "u",
        "l"
      ],
      [
        "l",
        "d"
      ],
      [
        "p",
        "p"
      ],
      [
        "at",
        "ion"
      ],
      [
        "Ġa",
        "n"
      ],
      [
        "Ġ",
        "P"
      ],
      [
        "t",
        "ed"
      ],
      [
        "Ġa",
        "t"
      ],
      [
        "Ġs",
        "a"
      ],
      [
        "a",
        "in"
      ],
      [
        "Ġ",
        "D"
      ],
      [
        "Ġhe",
        "r"
      ],
      [
        "a",
        "nd"
      ],
      [
        "Ġ",
        "W"
      ],
      [
        "u",
        "n"
      ],
      [
        "Ġ",
        "R"
      ],
      [
        "Ġb",
        "y"
      ],
      [
        "t",
        "h"
      ],
      [
        "r",
        "om"
      ],
      [
        "k",
        "e"
      ],
      [
        "Ġ",
        "y"
      ],
      [
        "ĠH",
        "e"
      ],
      [
        "Ġp",
        "l"
      ],
      [
        "Ġ",
        "F"
      ],
      [
        "u",
        "m"
      ],
      [
        "a",
        "g"
      ],
      [
        "o",
        "o"
      ],
      [
        "Ġ",
        "J"
      ],
      [
        "u",
        "s"
      ],
      [
        "Ġ",
        "G"
      ],
      [
        "Ġh",
        "a"
      ],
      [
        "Ġc",
        "on"
      ],
      [
        "Ġ",
        "N"
      ],
      [
        "Ġ",
        ")"
      ],
      [
        "Ġ",
        "("
      ],
      [
        "er",
        "e"
      ],
      [
        "er",
        "s"
      ],
      [
        "Ġh",
        "ad"
      ],
      [
        "Ġ1",
        "9"
      ],
      [
        "c",
        "t"
      ],
      [
        "es",
        "t"
      ],
      [
        "Ġs",
        "h"
      ],
      [
        "il",
        "l"
      ],
      [
        "Ġw",
        "ere"
      ],
      [
        "ĠS",
        "he"
      ],
      [
        "Ġ",
        "E"
      ],
      [
        "0",
        "0"
      ],
      [
        "Ġf",
        "rom"
      ],
      [
        "Ġs",
        "e"
      ],
      [
        "al",
        "l"
      ],
      [
        "ig",
        "h"
      ],
      [
        "o",
        "re"
      ],
      [
        "ar",
        "d"
      ],
      [
        "Ġ",
        "O"
      ],
      [
        "i",
        "f"
      ],
      [
        "Ġc",
        "om"
      ],
      [
        "e",
        "w"
      ],
      [
        "o",
        "s"
      ],
      [
        "k",
        "ed"
      ],
      [
        "r",
        "ou"
      ],
      [
        "e",
        "ar"
      ],
      [
        "o",
        "p"
      ],
      [
        "g",
        "h"
      ],
      [
        "t",
        "s"
      ],
      [
        "il",
        "y"
      ],
      [
        "Ġs",
        "he"
      ],
      [
        "Ġn",
        "ot"
      ],
      [
        "ĠThe",
        "y"
      ],
      [
        "Ġ",
        "k"
      ],
      [
        "ou",
        "ld"
      ],
      [
        "Ġ",
        "v"
      ],
      [
        "e",
        "m"
      ],
      [
        "i",
        "v"
      ],
      [
        "r",
        "a"
      ],
      [
        "ac",
        "k"
      ],
      [
        "Ġs",
        "u"
      ],
      [
        "re",
        "s"
      ],
      [
        "Ġp",
        "ro"
      ],
      [
        "am",
        "e"
      ],
      [
        "on",
        "g"
      ],
      [
        "i",
        "es"
      ],
      [
        "Ġsa",
        "id"
      ],
      [
        "Ġa",
        "re"
      ],
      [
        "Ġe",
        "x"
      ],
      [
        "at",
        "e"
      ],
      [
        "Ġd",
        "e"
      ],
      [
        "Ġpl",
        "ay"
      ],
      [
        "b",
        "er"
      ],
      [
        "is",
        "t"
      ],
      [
        "q",
        "u"
      ],
      [
        "u",
        "d"
      ],
      [
        "Ġc",
        "h"
      ],
      [
        "a",
        "b"
      ],
      [
        "Ġb",
        "ut"
      ],
      [
        "Ġthe",
        "y"
      ],
      [
        "Ġu",
        "p"
      ],
      [
        "Ġs",
        "p"
      ],
      [
        "o",
        "c"
      ],
      [
        "ou",
        "r"
      ],
      [
        "an",
        "t"
      ],
      [
        "T",
        "he"
      ],
      [
        "ic",
        "h"
      ],
      [
        "Ġo",
        "r"
      ],
      [
        "o",
        "d"
      ],
      [
        "es",
        "s"
      ],
      [
        "a",
        "p"
      ],
      [
        "Ġd",
        "ay"
      ],
      [
        "ver",
        "y"
      ],
      [
        "im",
        "e"
      ],
      [
        "id",
        "e"
      ],
      [
        "t",
        "her"
      ],
      [
        "om",
        "e"
      ],
      [
        "r",
        "y"
      ],
      [
        "Ġs",
        "o"
      ],
      [
        "i",
        "ve"
      ],
      [
        "ar",
        "t"
      ],
      [
        "at",
        "ed"
      ],
      [
        "it",
        "y"
      ],
      [
        "el",
        "l"
      ],
      [
        "as",
        "t"
      ],
      [
        "Ġthe",
        "ir"
      ],
      [
        "al",
        "ly"
      ],
      [
        "Ġ",
        "K"
      ],
      [
        "g",
        "e"
      ],
      [
        "Ġt",
        "ime"
      ],
      [
        "ĠI",
        "t"
      ],
      [
        "igh",
        "t"
      ],
      [
        "a",
        "k"
      ],
      [
        "i",
        "p"
      ],
      [
        "n",
        "e"
      ],
      [
        "ĠI",
        "n"
      ],
      [
        "Ġy",
        "ou"
      ],
      [
        "m",
        "ent"
      ],
      [
        "Ġ",
        "U"
      ],
      [
        "n",
        "t"
      ],
      [
        "u",
        "st"
      ],
      [
        "or",
        "t"
      ],
      [
        "Ġc",
        "l"
      ],
      [
        "he",
        "d"
      ],
      [
        "Ġwh",
        "ich"
      ],
      [
        "he",
        "n"
      ],
      [
        "Ġha",
        "ve"
      ],
      [
        "v",
        "ed"
      ],
      [
        "i",
        "a"
      ],
      [
        "it",
        "t"
      ],
      [
        "u",
        "c"
      ],
      [
        "Ġl",
        "e"
      ],
      [
        "o",
        "st"
      ],
      [
        "Ġ",
        "j"
      ],
      [
        "i",
        "an"
      ],
      [
        "m",
        "y"
      ],
      [
        "in",
        "e"
      ],
      [
        "Ġ",
        "â"
      ],
      [
        "Ġo",
        "ut"
      ],
      [
        "ou",
        "s"
      ],
      [
        "ar",
        "y"
      ],
      [
        "Ġh",
        "im"
      ],
      [
        "or",
        "d"
      ],
      [
        "Ġâ",
        "Ģ"
      ],
      [
        "a",
        "ke"
      ],
      [
        "Ġthe",
        "re"
      ],
      [
        "f",
        "ter"
      ],
      [
        "ĠL",
        "ily"
      ],
      [
        "Ġs",
        "c"
      ],
      [
        "Ġal",
        "l"
      ],
      [
        "a",
        "v"
      ],
      [
        "i",
        "al"
      ],
      [
        "o",
        "g"
      ],
      [
        "o",
        "nd"
      ],
      [
        "is",
        "h"
      ],
      [
        "u",
        "re"
      ],
      [
        "in",
        "d"
      ],
      [
        "Ġm",
        "om"
      ],
      [
        "ou",
        "nd"
      ],
      [
        "ou",
        "t"
      ],
      [
        "i",
        "e"
      ],
      [
        "Ġa",
        "b"
      ],
      [
        "Ġ",
        "3"
      ],
      [
        "Ġt",
        "r"
      ],
      [
        "ĠS",
        "t"
      ],
      [
        "at",
        "er"
      ],
      [
        "Ġwh",
        "o"
      ],
      [
        "u",
        "e"
      ],
      [
        "a",
        "re"
      ],
      [
        "Ġ",
        "ro"
      ],
      [
        "Ġg",
        "o"
      ],
      [
        "Ġw",
        "or"
      ],
      [
        "ir",
        "st"
      ],
      [
        "Ġl",
        "i"
      ],
      [
        "oo",
        "d"
      ],
      [
        "Ġa",
        "g"
      ],
      [
        "Ġt",
        "w"
      ],
      [
        "ou",
        "gh"
      ],
      [
        "w",
        "ay"
      ],
      [
        "ic",
        "e"
      ],
      [
        "a",
        "u"
      ],
      [
        "re",
        "e"
      ],
      [
        "Ġs",
        "m"
      ],
      [
        "Ġthe",
        "m"
      ],
      [
        "ow",
        "n"
      ],
      [
        "Ġin",
        "c"
      ],
      [
        "p",
        "l"
      ],
      [
        "as",
        "s"
      ],
      [
        "Ġm",
        "an"
      ],
      [
        "Ġha",
        "pp"
      ],
      [
        "o",
        "y"
      ],
      [
        "k",
        "s"
      ],
      [
        "c",
        "c"
      ],
      [
        "Ġa",
        "r"
      ],
      [
        "Ġ",
        "very"
      ],
      [
        "s",
        "o"
      ],
      [
        "Ġit",
        "s"
      ],
      [
        "Ġon",
        "e"
      ],
      [
        "Ġin",
        "t"
      ],
      [
        "on",
        "e"
      ],
      [
        "'",
        "s"
      ],
      [
        "e",
        "p"
      ],
      [
        "r",
        "it"
      ],
      [
        "Ġf",
        "irst"
      ],
      [
        "ĠC",
        "h"
      ],
      [
        "ad",
        "e"
      ],
      [
        "Ġa",
        "d"
      ],
      [
        "Ġ2",
        "00"
      ],
      [
        "il",
        "e"
      ],
      [
        "itt",
        "le"
      ],
      [
        "Ġw",
        "ould"
      ],
      [
        "Ġn",
        "e"
      ],
      [
        "ion",
        "s"
      ],
      [
        "u",
        "b"
      ],
      [
        "Ġbe",
        "c"
      ],
      [
        "ar",
        "k"
      ],
      [
        "f",
        "f"
      ],
      [
        "Ġo",
        "ther"
      ],
      [
        "ac",
        "h"
      ],
      [
        "Ġcon",
        "t"
      ],
      [
        "Ġcom",
        "p"
      ],
      [
        "Ġal",
        "so"
      ],
      [
        "ec",
        "t"
      ],
      [
        "Ġ",
        "V"
      ],
      [
        "p",
        "er"
      ],
      [
        "rou",
        "nd"
      ],
      [
        "ag",
        "e"
      ],
      [
        "Ġl",
        "ittle"
      ],
      [
        "ig",
        "n"
      ],
      [
        "Ġto",
        "o"
      ],
      [
        "ol",
        "l"
      ],
      [
        "i",
        "re"
      ],
      [
        "ri",
        "end"
      ],
      [
        "Ġc",
        "an"
      ],
      [
        "Ġ",
        ";"
      ],
      [
        "Ġ",
        "Y"
      ],
      [
        "Ġ2",
        "0"
      ],
      [
        "ic",
        "al"
      ],
      [
        "m",
        "er"
      ],
      [
        "Ġw",
        "e"
      ],
      [
        "Ġf",
        "riend"
      ],
      [
        "ac",
        "e"
      ],
      [
        "i",
        "z"
      ],
      [
        "Ġo",
        "ver"
      ],
      [
        "Ġk",
        "n"
      ],
      [
        "Ġb",
        "ig"
      ],
      [
        "Ġu",
        "n"
      ],
      [
        "u",
        "g"
      ],
      [
        "Ġd",
        "o"
      ],
      [
        "or",
        "m"
      ],
      [
        "Ġ",
        "en"
      ],
      [
        "Ġtw",
        "o"
      ],
      [
        "Ġsa",
        "w"
      ],
      [
        "ing",
        "s"
      ],
      [
        "it",
        "ed"
      ],
      [
        "ĠT",
        "h"
      ],
      [
        "Ġth",
        "is"
      ],
      [
        "Ġd",
        "id"
      ],
      [
        "Ġhapp",
        "y"
      ],
      [
        "Ġp",
        "er"
      ],
      [
        "Ġre",
        "s"
      ],
      [
        "an",
        "s"
      ],
      [
        "Ġh",
        "as"
      ],
      [
        "Ġc",
        "ould"
      ],
      [
        "p",
        "t"
      ],
      [
        "O",
        "n"
      ],
      [
        "Ġbe",
        "en"
      ],
      [
        "Ġof",
        "f"
      ],
      [
        "an",
        "ce"
      ],
      [
        "Ġ",
        "4"
      ],
      [
        "Ġn",
        "ew"
      ],
      [
        "ic",
        "k"
      ],
      [
        "oo",
        "k"
      ],
      [
        "Ġre",
        "c"
      ],
      [
        "w",
        "n"
      ],
      [
        "Ġd",
        "is"
      ],
      [
        "Ġm",
        "e"
      ],
      [
        "l",
        "l"
      ],
      [
        "en",
        "ce"
      ],
      [
        ".",
        "@"
      ],
      [
        "Ġ@",
        ".@"
      ],
      [
        "Ġ",
        "5"
      ],
      [
        "Ġp",
        "re"
      ],
      [
        "Ġa",
        "pp"
      ],
      [
        "Ġn",
        "o"
      ],
      [
        "it",
        "e"
      ],
      [
        "Ġy",
        "ear"
      ],
      [
        "Ġ1",
        "8"
      ],
      [
        "Ġint",
        "o"
      ],
      [
        "Ġa",
        "fter"
      ],
      [
        "Ġl",
        "o"
      ],
      [
        "ĠâĢ",
        "ĵ"
      ],
      [
        "Ġf",
        "e"
      ],
      [
        "Ġ",
        "im"
      ],
      [
        "Ġw",
        "hen"
      ],
      [
        ".",
        "\""
      ],
      [
        "ĠT",
        "im"
      ],
      [
        "Ġag",
        "ain"
      ],
      [
        "Ġm",
        "ore"
      ],
      [
        "el",
        "y"
      ],
      [
        "Ġ",
        ":"
      ],
      [
        "Ġf",
        "l"
      ],
      [
        "Ġd",
        "ec"
      ],
      [
        "ur",
        "ing"
      ],
      [
        "Ġs",
        "ome"
      ],
      [
        "an",
        "g"
      ],
      [
        ",",
        "@"
      ],
      [
        "Ġ@",
        ",@"
      ],
      [
        "Ġu",
        "s"
      ],
      [
        "ur",
        "n"
      ],
      [
        "Ġw",
        "an"
      ],
      [
        "it",
        "ion"
      ],
      [
        "Ġb",
        "ack"
      ],
      [
        "res",
        "s"
      ],
      [
        "r",
        "u"
      ],
      [
        "or",
        "y"
      ],
      [
        "Ġs",
        "er"
      ],
      [
        "y",
        "s"
      ],
      [
        "ir",
        "l"
      ],
      [
        "o",
        "in"
      ],
      [
        "l",
        "and"
      ],
      [
        "Ġt",
        "e"
      ],
      [
        "Ġp",
        "art"
      ],
      [
        "l",
        "ud"
      ],
      [
        "am",
        "ed"
      ],
      [
        "'",
        "t"
      ],
      [
        "Ġe",
        "v"
      ],
      [
        "ct",
        "ion"
      ],
      [
        "v",
        "el"
      ],
      [
        "Ġd",
        "es"
      ],
      [
        "Ġm",
        "ade"
      ],
      [
        "w",
        "e"
      ],
      [
        "ation",
        "s"
      ],
      [
        "nd",
        "er"
      ],
      [
        "f",
        "ul"
      ],
      [
        "te",
        "m"
      ],
      [
        "On",
        "ce"
      ],
      [
        "ol",
        "d"
      ],
      [
        "Ġup",
        "on"
      ],
      [
        "Ġwan",
        "ted"
      ],
      [
        "Ġth",
        "an"
      ],
      [
        "!",
        "\""
      ],
      [
        "ir",
        "d"
      ],
      [
        "ab",
        "le"
      ],
      [
        "Ġ20",
        "1"
      ],
      [
        "en",
        "s"
      ],
      [
        "Ġhe",
        "l"
      ],
      [
        "p",
        "h"
      ],
      [
        "Ġb",
        "et"
      ],
      [
        "l",
        "es"
      ],
      [
        "ac",
        "t"
      ],
      [
        "Ġab",
        "out"
      ],
      [
        "as",
        "e"
      ],
      [
        "rou",
        "gh"
      ],
      [
        "re",
        "at"
      ],
      [
        "il",
        "d"
      ],
      [
        "n",
        "g"
      ],
      [
        "Ġst",
        "ar"
      ],
      [
        "w",
        "ard"
      ],
      [
        "Ġinc",
        "lud"
      ],
      [
        "i",
        "ed"
      ],
      [
        "Ġg",
        "irl"
      ],
      [
        "i",
        "ous"
      ],
      [
        "i",
        "b"
      ],
      [
        "he",
        "re"
      ],
      [
        "m",
        "an"
      ],
      [
        "ou",
        "nt"
      ],
      [
        "Ġw",
        "ent"
      ],
      [
        "Ġc",
        "ar"
      ],
      [
        "Ġhel",
        "p"
      ],
      [
        "ot",
        "h"
      ],
      [
        "Ġli",
        "ke"
      ],
      [
        "r",
        "ic"
      ],
      [
        "Ġthe",
        "n"
      ],
      [
        "Ġn",
        "amed"
      ],
      [
        "Ġc",
        "o"
      ],
      [
        "as",
        "ed"
      ],
      [
        "is",
        "s"
      ],
      [
        "Ġf",
        "ound"
      ],
      [
        "on",
        "s"
      ],
      [
        "Ġa",
        "round"
      ],
      [
        "ver",
        "s"
      ],
      [
        "Ġre",
        "m"
      ],
      [
        "ul",
        "t"
      ],
      [
        "a",
        "il"
      ],
      [
        "or",
        "s"
      ],
      [
        "Ġ",
        "6"
      ],
      [
        "ĠB",
        "en"
      ],
      [
        "am",
        "p"
      ],
      [
        "el",
        "t"
      ],
      [
        "Ġb",
        "l"
      ],
      [
        "Ġs",
        "ay"
      ],
      [
        "Ġf",
        "un"
      ],
      [
        "an",
        "c"
      ],
      [
        "Ġp",
        "r"
      ],
      [
        "g",
        "et"
      ],
      [
        "at",
        "es"
      ],
      [
        "Ġ",
        "qu"
      ],
      [
        "s",
        "ide"
      ],
      [
        "ĠU",
        "n"
      ],
      [
        "er",
        "ed"
      ],
      [
        "al",
        "s"
      ],
      [
        "Ġp",
        "e"
      ],
      [
        "f",
        "er"
      ],
      [
        "Ġin",
        "ter"
      ],
      [
        "Ġcom",
        "m"
      ],
      [
        "Ġr",
        "an"
      ],
      [
        "Ġsp",
        "ec"
      ],
      [
        "Ġf",
        "in"
      ],
      [
        "om",
        "et"
      ],
      [
        "Ġm",
        "o"
      ],
      [
        "Ġg",
        "ame"
      ],
      [
        "Ġe",
        "nd"
      ],
      [
        "g",
        "an"
      ],
      [
        "h",
        "ing"
      ],
      [
        "Ġfriend",
        "s"
      ],
      [
[...]
